<unk>	0
<s>	0
</s>	0
en	-0
er	-1
ch	-2
▁d	-3
in	-4
ie	-5
▁s	-6
▁,	-7
▁w	-8
un	-9
▁.	-10
▁a	-11
ich	-12
▁e	-13
▁m	-14
st	-15
▁un	-16
as	-17
▁g	-18
▁die	-19
an	-20
ei	-21
▁ein	-22
▁i	-23
▁b	-24
te	-25
▁v	-26
▁h	-27
▁n	-28
▁und	-29
▁k	-30
▁z	-31
▁das	-32
es	-33
on	-34
ir	-35
▁f	-36
le	-37
ar	-38
ten	-39
sch	-40
▁wir	-41
▁sie	-42
▁in	-43
▁zu	-44
el	-45
gen	-46
hr	-47
▁au	-48
▁ich	-49
▁der	-50
or	-51
ti	-52
▁ist	-53
▁es	-54
em	-55
au	-56
der	-57
ein	-58
it	-59
al	-60
▁p	-61
▁al	-62
lich	-63
▁er	-64
den	-65
ge	-66
ach	-67
ben	-68
▁ha	-69
ber	-70
▁an	-71
de	-72
ter	-73
ier	-74
icht	-75
▁t	-76
▁ver	-77
▁dies	-78
ot	-79
ur	-80
▁ge	-81
▁l	-82
ol	-83
▁r	-84
▁j	-85
▁&	-86
qu	-87
▁be	-88
ung	-89
▁den	-90
▁sch	-91
um	-92
quot	-93
ür	-94
nen	-95
▁nicht	-96
mm	-97
▁von	-98
▁eine	-99
▁auf	-100
sen	-101
▁als	-102
▁dass	-103
ro	-104
eit	-105
is	-106
▁mit	-107
▁o	-108
ck	-109
▁wie	-110
ann	-111
tz	-112
eh	-113
len	-114
ra	-115
ind	-116
il	-117
▁war	-118
▁uns	-119
▁so	-120
ig	-121
▁sich	-122
▁da	-123
ent	-124
▁le	-125
re	-126
▁wen	-127
über	-128
▁man	-129
▁st	-130
▁was	-131
▁aus	-132
at	-133
▁sind	-134
▁aber	-135
schen	-136
us	-137
▁?	-138
▁:	-139
ahr	-140
▁um	-141
ön	-142
be	-143
▁für	-144
▁haben	-145
tion	-146
and	-147
▁wenn	-148
ag	-149
▁hat	-150
▁über	-151
ehr	-152
ft	-153
am	-154
iel	-155
▁wer	-156
▁ges	-157
▁kön	-158
▁ihr	-159
▁mein	-160
▁diese	-161
än	-162
ff	-163
▁im	-164
▁vor	-165
se	-166
och	-167
ehen	-168
▁wei	-169
eu	-170
▁sp	-171
▁re	-172
om	-173
ik	-174
sten	-175
▁dem	-176
▁ar	-177
▁je	-178
▁also	-179
▁pro	-180
▁sein	-181
kt	-182
▁des	-183
ern	-184
tw	-185
▁men	-186
▁einen	-187
chen	-188
bt	-189
▁hier	-190
▁ih	-191
os	-192
oll	-193
▁nach	-194
▁bei	-195
▁können	-196
mmen	-197
rei	-198
▁unser	-199
isch	-200
elt	-201
▁ent	-202
wei	-203
▁-	-204
▁werden	-205
▁jahr	-206
ut	-207
ah	-208
▁geh	-209
▁oder	-210
▁mach	-211
men	-212
sp	-213
gt	-214
ne	-215
ste	-216
▁kann	-217
ungen	-218
▁ander	-219
▁gr	-220
ieren	-221
li	-222
ien	-223
ken	-224
zu	-225
▁her	-226
▁auch	-227
▁1	-228
▁einer	-229
rau	-230
ell	-231
ation	-232
iert	-233
▁sehr	-234
▁dar	-235
▁dann	-236
anz	-237
scha	-238
▁etw	-239
ück	-240
▁ko	-241
▁einem	-242
igen	-243
tig	-244
▁gi	-245
▁nur	-246
▁wird	-247
aus	-248
ort	-249
▁–	-250
▁viel	-251
▁all	-252
tel	-253
▁unter	-254
▁c	-255
▁gen	-256
uch	-257
▁mich	-258
ess	-259
▁gibt	-260
▁kein	-261
▁kon	-262
▁menschen	-263
ör	-264
▁ihnen	-265
ute	-266
äch	-267
issen	-268
▁leben	-269
fen	-270
▁gesch	-271
äh	-272
▁wur	-273
urch	-274
▁te	-275
▁sehen	-276
lau	-277
tzt	-278
▁ab	-279
▁noch	-280
▁alle	-281
og	-282
▁etwas	-283
ab	-284
hal	-285
ing	-286
ischen	-287
▁am	-288
▁dieser	-289
▁habe	-290
und	-291
▁gro	-292
ap	-293
▁mö	-294
▁durch	-295
schaft	-296
▁sag	-297
ät	-298
ang	-299
▁wissen	-300
▁mehr	-301
▁welt	-302
ul	-303
agen	-304
▁mir	-305
mal	-306
ver	-307
▁wo	-308
dern	-309
bei	-310
▁zur	-311
heit	-312
▁mus	-313
ke	-314
ün	-315
▁--	-316
mmer	-317
ri	-318
▁groß	-319
▁wirk	-320
▁einf	-321
üh	-322
▁vie	-323
keit	-324
ko	-325
00	-326
ige	-327
lichen	-328
all	-329
▁we	-330
▁zwei	-331
eil	-332
▁ganz	-333
ffen	-334
är	-335
we	-336
▁wirklich	-337
▁zum	-338
tr	-339
▁2	-340
▁meine	-341
▁bes	-342
liche	-343
▁nun	-344
▁en	-345
▁wür	-346
▁br	-347
▁ihre	-348
sa	-349
▁hin	-350
ellen	-351
mit	-352
▁zeit	-353
ähr	-354
üs	-355
▁machen	-356
▁weil	-357
tet	-358
▁wurde	-359
▁einfach	-360
ass	-361
tiv	-362
▁dieses	-363
ere	-364
hen	-365
▁neu	-366
▁sel	-367
ische	-368
▁ch	-369
assen	-370
me	-371
tzen	-372
▁me	-373
▁inter	-374
per	-375
eln	-376
br	-377
ick	-378
acht	-379
▁tun	-380
▁gew	-381
▁immer	-382
äl	-383
her	-384
▁lie	-385
ht	-386
cht	-387
▁jetzt	-388
ru	-389
▁din	-390
bst	-391
for	-392
▁bis	-393
▁kle	-394
▁fra	-395
chte	-396
he	-397
end	-398
▁beg	-399
▁unsere	-400
ühr	-401
▁gem	-402
▁se	-403
ad	-404
▁bil	-405
bar	-406
ungs	-407
mmt	-408
▁ne	-409
wer	-410
▁gef	-411
ob	-412
ges	-413
lie	-414
nte	-415
▁hatte	-416
▁keine	-417
ze	-418
▁vers	-419
▁klein	-420
pf	-421
▁du	-422
ktion	-423
rie	-424
ran	-425
▁tat	-426
▁pa	-427
▁leute	-428
▁denn	-429
che	-430
▁selbst	-431
inden	-432
glich	-433
▁sagte	-434
▁viele	-435
▁müs	-436
▁eigen	-437
pp	-438
schie	-439
eiten	-440
ner	-441
ster	-442
tier	-443
▁diesem	-444
onen	-445
ehmen	-446
▁ger	-447
leich	-448
▁ber	-449
▁gel	-450
▁sagen	-451
di	-452
▁mil	-453
▁dinge	-454
▁soll	-455
olog	-456
ichtig	-457
äu	-458
▁diesen	-459
▁eines	-460
▁bin	-461
gend	-462
omp	-463
▁verb	-464
▁alles	-465
chn	-466
ble	-467
▁pl	-468
▁waren	-469
stell	-470
▁weiter	-471
▁glau	-472
▁ob	-473
▁zei	-474
▁müssen	-475
ler	-476
dem	-477
▁heu	-478
▁kl	-479
▁nie	-480
▁wieder	-481
ßen	-482
ingen	-483
zen	-484
▁jahren	-485
unden	-486
▁nat	-487
kommen	-488
▁geb	-489
▁erf	-490
▁andere	-491
▁art	-492
ger	-493
▁kin	-494
▁bl	-495
▁würde	-496
du	-497
ollen	-498
▁mal	-499
ichte	-500
fl	-501
▁gl	-502
ma	-503
▁ex	-504
▁stel	-505
▁ste	-506
▁wel	-507
▁anderen	-508
zi	-509
angen	-510
▁dan	-511
▁son	-512
ser	-513
▁proble	-514
det	-515
▁zusa	-516
leicht	-517
▁damit	-518
fe	-519
▁entw	-520
ist	-521
▁zusammen	-522
tisch	-523
▁per	-524
▁gut	-525
▁tats	-526
▁verst	-527
▁vielleicht	-528
▁heraus	-529
op	-530
▁wahr	-531
▁schw	-532
gef	-533
nt	-534
nis	-535
auen	-536
▁or	-537
▁geht	-538
▁milli	-539
▁fl	-540
age	-541
des	-542
▁ja	-543
ität	-544
▁dav	-545
lt	-546
▁zw	-547
änder	-548
under	-549
auf	-550
▁for	-551
iger	-552
▁jahre	-553
ache	-554
ast	-555
ion	-556
▁erz	-557
ekt	-558
yst	-559
▁muss	-560
tern	-561
▁zurück	-562
▁best	-563
▁dr	-564
ächlich	-565
uten	-566
rä	-567
oh	-568
▁gleich	-569
ale	-570
▁heute	-571
geb	-572
▁kam	-573
▁teil	-574
▁entwick	-575
ug	-576
▁techn	-577
off	-578
▁drei	-579
ystem	-580
▁schon	-581
▁warum	-582
spiel	-583
▁ide	-584
beit	-585
▁pass	-586
▁möchte	-587
▁kinder	-588
nten	-589
zent	-590
▁dort	-591
ill	-592
▁genau	-593
▁einige	-594
▁letz	-595
▁ir	-596
▁arbei	-597
▁ö	-598
öß	-599
gel	-600
halten	-601
▁mo	-602
▁tatsächlich	-603
▁brau	-604
▁macht	-605
tes	-606
▁sei	-607
▁gegen	-608
▁oh	-609
▁einz	-610
▁ben	-611
▁frau	-612
äre	-613
sam	-614
▁3	-615
pt	-616
stellen	-617
cken	-618
inn	-619
kl	-620
art	-621
▁de	-622
▁geschichte	-623
▁davon	-624
vor	-625
ak	-626
tik	-627
▁verw	-628
▁denken	-629
tigen	-630
ine	-631
▁zie	-632
aten	-633
rechen	-634
▁mensch	-635
▁land	-636
ationen	-637
aut	-638
▁jem	-639
apos	-640
▁hand	-641
▁bede	-642
esen	-643
▁tag	-644
▁paar	-645
▁weg	-646
▁wichtig	-647
ok	-648
▁bild	-649
▁hei	-650
▁natür	-651
▁möglich	-652
▁hatten	-653
elle	-654
▁mei	-655
alen	-656
▁spr	-657
mer	-658
ichten	-659
▁ihn	-660
ahl	-661
▁besch	-662
achte	-663
mlich	-664
halb	-665
000	-666
▁größ	-667
▁grund	-668
ologie	-669
uchen	-670
▁könnte	-671
dien	-672
▁fr	-673
tige	-674
▁ma	-675
▁gehen	-676
olle	-677
tt	-678
▁verl	-679
iz	-680
weise	-681
ant	-682
▁seine	-683
▁lassen	-684
▁darüber	-685
▁schl	-686
ennen	-687
esser	-688
ade	-689
▁werde	-690
▁fun	-691
form	-692
▁arbeit	-693
▁woll	-694
▁reg	-695
▁wollen	-696
fr	-697
äd	-698
ek	-699
▁ph	-700
▁stu	-701
oren	-702
▁schn	-703
▁meiner	-704
▁lei	-705
anden	-706
ändern	-707
▁beispiel	-708
vers	-709
▁komp	-710
igkeit	-711
itt	-712
achen	-713
▁weiß	-714
aum	-715
iv	-716
pro	-717
▁fre	-718
▁jeder	-719
att	-720
ha	-721
▁wurden	-722
▁problem	-723
▁währ	-724
ierte	-725
est	-726
net	-727
▁funktion	-728
reich	-729
▁tra	-730
irn	-731
▁ihren	-732
schein	-733
▁sicher	-734
uss	-735
gr	-736
gar	-737
▁irgend	-738
▁aut	-739
▁pers	-740
▁sta	-741
▁gab	-742
▁erzäh	-743
▁lang	-744
▁interess	-745
für	-746
▁natürlich	-747
▁kommen	-748
unde	-749
▁wor	-750
▁sti	-751
hin	-752
schieden	-753
▁!	-754
▁während	-755
▁erst	-756
zeu	-757
▁mar	-758
tlich	-759
▁bewe	-760
amen	-761
utzen	-762
hn	-763
▁führ	-764
▁19	-765
▁denke	-766
▁mon	-767
tra	-768
fer	-769
▁hal	-770
▁neue	-771
▁frage	-772
▁gemacht	-773
▁glaube	-774
▁5	-775
▁will	-776
▁dazu	-777
ander	-778
▁zwischen	-779
▁doch	-780
gie	-781
teil	-782
▁wäre	-783
änd	-784
▁;	-785
▁unserer	-786
▁lebens	-787
▁nichts	-788
▁wasser	-789
▁vom	-790
▁näch	-791
▁ersten	-792
▁versuch	-793
▁sol	-794
▁einmal	-795
▁gerade	-796
achten	-797
▁finden	-798
▁sogar	-799
▁gemein	-800
▁schu	-801
im	-802
ss	-803
▁ohne	-804
▁geben	-805
▁prozent	-806
▁wissenschaft	-807
▁bi	-808
▁ok	-809
▁hät	-810
ühl	-811
▁kommt	-812
▁kur	-813
od	-814
ika	-815
zie	-816
▁nor	-817
▁ihrer	-818
▁erw	-819
los	-820
▁anf	-821
▁scha	-822
geben	-823
▁sondern	-824
gew	-825
▁dafür	-826
licht	-827
▁zeigen	-828
▁20	-829
▁lö	-830
gehen	-831
▁erste	-832
gan	-833
nehmen	-834
▁passiert	-835
▁letzten	-836
▁würden	-837
keiten	-838
dr	-839
▁sieht	-840
ßer	-841
▁vielen	-842
▁pol	-843
▁uni	-844
▁denen	-845
▁besser	-846
▁bew	-847
▁ins	-848
ph	-849
▁vier	-850
▁kre	-851
▁rei	-852
▁qu	-853
▁gehirn	-854
ativ	-855
▁verstehen	-856
ften	-857
▁4	-858
ce	-859
▁betr	-860
▁meisten	-861
aufen	-862
▁produ	-863
lung	-864
▁verschieden	-865
ören	-866
cher	-867
ay	-868
▁millionen	-869
▁min	-870
ikan	-871
alt	-872
hem	-873
▁daran	-874
bl	-875
▁konnte	-876
▁ung	-877
▁ganze	-878
tschaft	-879
unkt	-880
▁große	-881
▁ele	-882
chten	-883
ört	-884
▁stellen	-885
▁glück	-886
▁spiel	-887
ünf	-888
uter	-889
ierung	-890
öl	-891
örper	-892
▁ak	-893
bs	-894
.000	-895
ys	-896
▁etwa	-897
▁geld	-898
▁sollte	-899
str	-900
ahren	-901
zin	-902
▁idee	-903
▁ziemlich	-904
rank	-905
▁daten	-906
schl	-907
th	-908
schei	-909
▁fall	-910
▁nehmen	-911
gung	-912
▁fol	-913
id	-914
ergie	-915
yp	-916
imm	-917
▁spie	-918
▁sagt	-919
chs	-920
licher	-921
▁sprechen	-922
▁univers	-923
▁star	-924
▁jemand	-925
schied	-926
▁dabei	-927
▁bek	-928
stellt	-929
ckt	-930
innen	-931
äng	-932
ogen	-933
ult	-934
gra	-935
enden	-936
▁gute	-937
pl	-938
mme	-939
▁tr	-940
ange	-941
gesch	-942
▁ti	-943
▁wollte	-944
▁frauen	-945
▁fragen	-946
▁schnell	-947
▁co	-948
▁sollten	-949
ane	-950
ign	-951
ollar	-952
▁könnten	-953
▁arbeiten	-954
▁hau	-955
▁sa	-956
▁10	-957
▁meinem	-958
▁bef	-959
▁di	-960
▁fin	-961
▁lin	-962
ül	-963
▁pr	-964
▁irgendw	-965
▁bekommen	-966
agt	-967
mus	-968
erst	-969
▁ged	-970
▁dir	-971
▁system	-972
legen	-973
▁verg	-974
▁meinen	-975
utz	-976
▁amer	-977
utter	-978
▁welche	-979
ßt	-980
▁inform	-981
ust	-982
ingt	-983
tieren	-984
ktur	-985
ker	-986
kun	-987
ate	-988
▁raum	-989
ppe	-990
nung	-991
▁veränder	-992
▁darauf	-993
▁ging	-994
ernen	-995
▁körper	-996
▁nah	-997
hand	-998
▁hoch	-999
▁comp	-1000
sehen	-1001
▁hel	-1002
▁bedeute	-1003
sst	-1004
▁em	-1005
▁us	-1006
▁außer	-1007
▁gest	-1008
▁sache	-1009
mals	-1010
▁bo	-1011
ide	-1012
jekt	-1013
▁afr	-1014
▁kleinen	-1015
scheinlich	-1016
ite	-1017
mö	-1018
▁fal	-1019
▁danke	-1020
▁dollar	-1021
▁y	-1022
hl	-1023
▁stra	-1024
▁bereit	-1025
ären	-1026
annt	-1027
enz	-1028
▁verk	-1029
▁eigentlich	-1030
▁sah	-1031
eht	-1032
gte	-1033
▁seit	-1034
kte	-1035
zei	-1036
oten	-1037
laub	-1038
kunft	-1039
▁lernen	-1040
▁weniger	-1041
onder	-1042
▁glauben	-1043
spr	-1044
ution	-1045
▁wunder	-1046
▁technologie	-1047
▁ende	-1048
amil	-1049
itte	-1050
▁organ	-1051
▁schön	-1052
twort	-1053
▁kind	-1054
▁verf	-1055
▁hö	-1056
reiben	-1057
sicht	-1058
itz	-1059
ts	-1060
▁buch	-1061
ater	-1062
fte	-1063
woh	-1064
▁jeden	-1065
▁energie	-1066
ischer	-1067
tische	-1068
▁ganzen	-1069
▁mom	-1070
▁fünf	-1071
▁komple	-1072
▁bedeutet	-1073
▁kleine	-1074
▁namen	-1075
asch	-1076
▁jedes	-1077
▁gesehen	-1078
▁ihm	-1079
▁brauchen	-1080
▁wahrscheinlich	-1081
stand	-1082
▁mor	-1083
▁tei	-1084
▁dachte	-1085
▁spe	-1086
pr	-1087
▁famil	-1088
▁schle	-1089
hau	-1090
äter	-1091
▁computer	-1092
▁get	-1093
▁poli	-1094
▁seite	-1095
▁..	-1096
▁fil	-1097
▁nein	-1098
▁großen	-1099
▁unseren	-1100
ic	-1101
▁eben	-1102
▁mann	-1103
▁recht	-1104
▁hinter	-1105
▁versch	-1106
ia	-1107
▁par	-1108
nah	-1109
▁lehr	-1110
arbei	-1111
▁offen	-1112
▁unterschied	-1113
▁kar	-1114
▁frei	-1115
▁voll	-1116
ruck	-1117
usst	-1118
▁200	-1119
▁ihrem	-1120
hema	-1121
▁bringen	-1122
▁versuchen	-1123
raft	-1124
ga	-1125
▁menge	-1126
immt	-1127
▁sozi	-1128
fall	-1129
no	-1130
lick	-1131
▁gar	-1132
▁besonder	-1133
▁ern	-1134
▁fest	-1135
tischen	-1136
▁form	-1137
dig	-1138
▁su	-1139
▁zukunft	-1140
achsen	-1141
▁entschei	-1142
are	-1143
▁ur	-1144
ies	-1145
▁weise	-1146
ert	-1147
▁wenig	-1148
ard	-1149
▁unglaub	-1150
▁...	-1151
▁öff	-1152
▁chin	-1153
▁ang	-1154
adt	-1155
ild	-1156
▁ho	-1157
▁dank	-1158
▁mag	-1159
▁wirtschaft	-1160
▁gern	-1161
vol	-1162
▁gesund	-1163
▁hil	-1164
▁6	-1165
unter	-1166
▁erken	-1167
▁keinen	-1168
▁essen	-1169
▁fot	-1170
▁bed	-1171
▁hoff	-1172
▁tre	-1173
▁ort	-1174
▁person	-1175
alis	-1176
essen	-1177
▁ange	-1178
tzlich	-1179
▁fast	-1180
▁gru	-1181
▁rich	-1182
asse	-1183
ogra	-1184
mittel	-1185
tete	-1186
▁entde	-1187
▁nutzen	-1188
▁später	-1189
▁musik	-1190
▁woch	-1191
ott	-1192
eren	-1193
gefähr	-1194
▁mutter	-1195
▁sy	-1196
▁gesagt	-1197
▁gra	-1198
▁licht	-1199
ultur	-1200
▁früh	-1201
our	-1202
▁richtig	-1203
ald	-1204
▁ungefähr	-1205
zeit	-1206
▁ster	-1207
▁el	-1208
▁bet	-1209
▁moment	-1210
▁milliar	-1211
▁grün	-1212
ruktur	-1213
ief	-1214
▁erkl	-1215
▁indem	-1216
schaften	-1217
ernt	-1218
▁bau	-1219
leben	-1220
wohl	-1221
▁hätte	-1222
enten	-1223
ommen	-1224
▁zeigt	-1225
▁beim	-1226
▁augen	-1227
▁eigenen	-1228
ierten	-1229
▁schauen	-1230
tiert	-1231
▁natur	-1232
stellung	-1233
▁bere	-1234
▁tau	-1235
▁ted	-1236
denken	-1237
▁kurz	-1238
▁seiner	-1239
▁funktioniert	-1240
lig	-1241
eist	-1242
▁schwer	-1243
wir	-1244
▁plane	-1245
ial	-1246
land	-1247
▁schaffen	-1248
fft	-1249
▁aller	-1250
si	-1251
▁män	-1252
▁erde	-1253
▁jede	-1254
unst	-1255
▁anders	-1256
▁füh	-1257
ließ	-1258
reis	-1259
▁ü	-1260
kon	-1261
▁spielen	-1262
ome	-1263
führ	-1264
▁the	-1265
#9	-1266
sel	-1267
▁at	-1268
▁&#9	-1269
reichen	-1270
▁lu	-1271
▁oft	-1272
▁u	-1273
schn	-1274
▁elekt	-1275
eine	-1276
ält	-1277
▁kunst	-1278
▁heißt	-1279
▁schwier	-1280
▁erzählen	-1281
zeich	-1282
volution	-1283
ünst	-1284
so	-1285
▁mater	-1286
▁gesundheit	-1287
▁fäh	-1288
▁krie	-1289
gang	-1290
stoff	-1291
▁organis	-1292
▁ro	-1293
▁konnten	-1294
tze	-1295
▁gesell	-1296
atur	-1297
▁haus	-1298
▁verm	-1299
bringen	-1300
▁bisschen	-1301
▁exper	-1302
▁erfol	-1303
▁bevor	-1304
▁probleme	-1305
▁medi	-1306
alität	-1307
▁8	-1308
▁9	-1309
▁kor	-1310
ahlen	-1311
▁herum	-1312
ße	-1313
▁wohl	-1314
ppen	-1315
welt	-1316
▁allen	-1317
ähn	-1318
▁he	-1319
▁rob	-1320
▁inner	-1321
▁begann	-1322
▁prä	-1323
itten	-1324
▁liebe	-1325
▁helfen	-1326
satz	-1327
▁weit	-1328
▁neuen	-1329
▁flie	-1330
▁genug	-1331
▁vert	-1332
▁klar	-1333
▁nächsten	-1334
▁eng	-1335
▁ideen	-1336
▁ru	-1337
▁komm	-1338
▁vide	-1339
ks	-1340
▁na	-1341
▁kennen	-1342
▁überall	-1343
▁manch	-1344
▁internet	-1345
▁lange	-1346
▁sü	-1347
▁kultur	-1348
bo	-1349
▁stadt	-1350
mp	-1351
fel	-1352
▁15	-1353
▁50	-1354
bracht	-1355
▁sit	-1356
ord	-1357
▁30	-1358
▁design	-1359
eich	-1360
▁okay	-1361
▁7	-1362
▁feh	-1363
▁fort	-1364
▁arten	-1365
▁manchmal	-1366
et	-1367
▁krank	-1368
▁unserem	-1369
ow	-1370
ahrung	-1371
▁erh	-1372
▁pati	-1373
lichkeit	-1374
alten	-1375
▁%	-1376
▁blei	-1377
ädchen	-1378
▁bem	-1379
▁euch	-1380
▁darum	-1381
aden	-1382
liches	-1383
▁seinen	-1384
zess	-1385
▁new	-1386
▁großar	-1387
▁milliarden	-1388
▁reden	-1389
▁bauen	-1390
sy	-1391
umen	-1392
▁eur	-1393
▁glob	-1394
▁erfolg	-1395
ligen	-1396
richt	-1397
fäl	-1398
nisse	-1399
hunder	-1400
system	-1401
▁niem	-1402
ucht	-1403
▁100	-1404
▁tran	-1405
▁sechs	-1406
▁afrika	-1407
lte	-1408
äche	-1409
▁wus	-1410
▁einzel	-1411
asst	-1412
▁amerikan	-1413
heiten	-1414
▁planeten	-1415
▁verändern	-1416
▁pri	-1417
isten	-1418
▁leuten	-1419
▁liegt	-1420
▁str	-1421
▁nennen	-1422
▁anderes	-1423
tigt	-1424
▁dich	-1425
ition	-1426
▁projekt	-1427
ta	-1428
ieht	-1429
▁mädchen	-1430
kel	-1431
▁rel	-1432
▁ober	-1433
▁gehört	-1434
kten	-1435
iss	-1436
▁sagten	-1437
▁verhalten	-1438
sche	-1439
ücken	-1440
▁kopf	-1441
zeug	-1442
▁kn	-1443
▁far	-1444
▁stand	-1445
▁behand	-1446
▁schein	-1447
▁universum	-1448
möglich	-1449
▁schule	-1450
▁pu	-1451
▁gesam	-1452
ven	-1453
ennt	-1454
▁punkt	-1455
▁normal	-1456
▁bel	-1457
finden	-1458
▁indien	-1459
▁kontr	-1460
atz	-1461
▁statt	-1462
▁film	-1463
▁gebäu	-1464
▁wert	-1465
raum	-1466
▁mat	-1467
gramm	-1468
▁deshalb	-1469
▁bür	-1470
▁verein	-1471
▁bewusst	-1472
▁ähn	-1473
▁besonders	-1474
▁los	-1475
▁gener	-1476
▁geschichten	-1477
▁stehen	-1478
▁entwickelt	-1479
ock	-1480
rom	-1481
▁usa	-1482
▁mod	-1483
▁schr	-1484
ip	-1485
▁oben	-1486
utzt	-1487
▁anst	-1488
▁hören	-1489
▁minuten	-1490
▁to	-1491
▁machte	-1492
▁lös	-1493
▁sinn	-1494
▁forsch	-1495
▁interessan	-1496
▁erinn	-1497
zahl	-1498
▁schul	-1499
▁namens	-1500
▁jahrhunder	-1501
▁seinem	-1502
▁antwort	-1503
druck	-1504
▁bereits	-1505
▁unternehmen	-1506
▁ausge	-1507
glichen	-1508
▁erreichen	-1509
ührt	-1510
▁abs	-1511
▁sor	-1512
ös	-1513
▁is	-1514
▁res	-1515
▁benutzen	-1516
▁verschiedene	-1517
io	-1518
indung	-1519
▁teilen	-1520
ände	-1521
▁niemand	-1522
jek	-1523
halt	-1524
spie	-1525
akter	-1526
▁halten	-1527
trag	-1528
▁arm	-1529
anken	-1530
isches	-1531
▁gerne	-1532
▁musste	-1533
zus	-1534
▁flug	-1535
▁veran	-1536
dlich	-1537
hol	-1538
▁vorher	-1539
▁gesellschaft	-1540
▁mu	-1541
tive	-1542
▁typ	-1543
▁netz	-1544
▁informationen	-1545
▁stück	-1546
ium	-1547
richten	-1548
aun	-1549
lei	-1550
einander	-1551
▁steht	-1552
▁bilder	-1553
allen	-1554
kommt	-1555
▁familie	-1556
cke	-1557
gem	-1558
son	-1559
▁stud	-1560
▁schü	-1561
sä	-1562
ahn	-1563
haupt	-1564
forder	-1565
▁phys	-1566
▁komplex	-1567
▁entf	-1568
▁robo	-1569
▁kosten	-1570
▁op	-1571
iges	-1572
tter	-1573
twor	-1574
▁bas	-1575
igkeiten	-1576
omen	-1577
zieh	-1578
setzen	-1579
lo	-1580
fin	-1581
▁arch	-1582
▁gott	-1583
▁anw	-1584
▁eff	-1585
▁künst	-1586
▁mittel	-1587
▁beein	-1588
min	-1589
▁auto	-1590
▁darin	-1591
one	-1592
▁vater	-1593
▁braucht	-1594
öhn	-1595
voll	-1596
▁li	-1597
öff	-1598
▁bestimm	-1599
▁beob	-1600
▁freund	-1601
▁fa	-1602
▁hätten	-1603
▁einzige	-1604
trie	-1605
grund	-1606
gestellt	-1607
unge	-1608
rieben	-1609
▁erkennen	-1610
annte	-1611
endet	-1612
▁eins	-1613
stü	-1614
änger	-1615
▁irgendwie	-1616
bare	-1617
punkt	-1618
ständ	-1619
▁aktiv	-1620
▁gefühl	-1621
neh	-1622
▁innerhalb	-1623
▁alt	-1624
▁anzu	-1625
▁fu	-1626
rat	-1627
bild	-1628
zentr	-1629
▁inst	-1630
▁luft	-1631
▁unters	-1632
man	-1633
▁öffent	-1634
▁bewegen	-1635
bel	-1636
▁fir	-1637
▁wegen	-1638
schnitt	-1639
▁vorstellen	-1640
▁kap	-1641
▁hunder	-1642
▁bereich	-1643
ölker	-1644
▁geschä	-1645
▁mik	-1646
anzen	-1647
arten	-1648
▁besten	-1649
zieren	-1650
▁bemer	-1651
▁patienten	-1652
▁do	-1653
▁stunden	-1654
▁pf	-1655
vi	-1656
fra	-1657
▁gruppe	-1658
rak	-1659
ehn	-1660
▁lau	-1661
▁jedem	-1662
▁unglaublich	-1663
ässt	-1664
▁ries	-1665
ffe	-1666
▁po	-1667
iere	-1668
▁ergeb	-1669
▁beginnen	-1670
▁herz	-1671
▁medizin	-1672
ume	-1673
dung	-1674
▁vir	-1675
▁möglichkeit	-1676
▁gemeinsam	-1677
▁drau	-1678
▁beiden	-1679
ris	-1680
▁bitte	-1681
▁sprache	-1682
▁welch	-1683
▁daher	-1684
▁ansch	-1685
▁umwelt	-1686
▁sachen	-1687
▁wollten	-1688
inen	-1689
▁dis	-1690
▁jen	-1691
ließlich	-1692
▁treffen	-1693
▁fe	-1694
▁städ	-1695
▁haupt	-1696
▁rep	-1697
▁sage	-1698
▁erstaun	-1699
▁material	-1700
▁entwickeln	-1701
euer	-1702
stra	-1703
affen	-1704
▁entst	-1705
▁reich	-1706
▁erhalten	-1707
sk	-1708
lek	-1709
▁krebs	-1710
▁struktur	-1711
▁china	-1712
▁gleiche	-1713
ehe	-1714
tis	-1715
auer	-1716
app	-1717
ider	-1718
▁kli	-1719
▁nation	-1720
ings	-1721
▁obwohl	-1722
tten	-1723
▁gese	-1724
▁schwar	-1725
zt	-1726
tem	-1727
wand	-1728
▁kindern	-1729
▁verschiedenen	-1730
sei	-1731
sych	-1732
▁fäl	-1733
▁menschlichen	-1734
▁verr	-1735
▁bez	-1736
▁fing	-1737
erweise	-1738
▁eltern	-1739
▁18	-1740
esse	-1741
gten	-1742
▁pos	-1743
▁yor	-1744
▁ändern	-1745
▁gebäude	-1746
▁kü	-1747
häng	-1748
ielt	-1749
▁vis	-1750
▁folgen	-1751
▁überhaupt	-1752
▁näh	-1753
▁nächste	-1754
▁sk	-1755
blik	-1756
▁dein	-1757
▁fern	-1758
▁intel	-1759
▁damals	-1760
otz	-1761
werk	-1762
zustellen	-1763
ank	-1764
sein	-1765
▁masch	-1766
inner	-1767
▁rest	-1768
▁angst	-1769
▁richt	-1770
genommen	-1771
▁einigen	-1772
▁tut	-1773
annen	-1774
lin	-1775
▁gene	-1776
▁inv	-1777
ranken	-1778
▁schreiben	-1779
enzen	-1780
▁nä	-1781
▁win	-1782
▁unbe	-1783
▁ziel	-1784
▁hause	-1785
▁länder	-1786
▁verändert	-1787
uer	-1788
▁bezieh	-1789
ase	-1790
▁ju	-1791
onnen	-1792
▁versucht	-1793
haus	-1794
iken	-1795
▁schau	-1796
▁roboter	-1797
gal	-1798
▁erk	-1799
▁wort	-1800
▁verwenden	-1801
han	-1802
▁männer	-1803
ore	-1804
aktion	-1805
lossen	-1806
▁lehrer	-1807
▁mathema	-1808
▁unterstü	-1809
▁kä	-1810
schr	-1811
▁sau	-1812
tzung	-1813
▁persön	-1814
▁nämlich	-1815
gabe	-1816
äten	-1817
▁char	-1818
als	-1819
▁bab	-1820
▁werk	-1821
▁tausen	-1822
▁regierung	-1823
urs	-1824
▁öl	-1825
▁zer	-1826
▁lage	-1827
▁morgen	-1828
▁stellt	-1829
ügen	-1830
▁psych	-1831
▁fand	-1832
▁meer	-1833
▁prof	-1834
tigkeit	-1835
gs	-1836
fläche	-1837
völker	-1838
▁erzeu	-1839
▁weltw	-1840
▁verd	-1841
ktor	-1842
▁wand	-1843
▁mikro	-1844
▁erscha	-1845
▁kommun	-1846
▁sieben	-1847
bes	-1848
▁sicht	-1849
▁anfang	-1850
▁technolog	-1851
▁getan	-1852
▁weitere	-1853
▁trotz	-1854
▁überr	-1855
▁falsch	-1856
▁jed	-1857
▁neur	-1858
▁junge	-1859
▁führen	-1860
tte	-1861
aschen	-1862
denten	-1863
▁elektr	-1864
ziel	-1865
ud	-1866
ziert	-1867
▁leiden	-1868
sto	-1869
▁40	-1870
▁erre	-1871
▁ehr	-1872
dition	-1873
▁unten	-1874
bte	-1875
▁ka	-1876
reifen	-1877
▁prozess	-1878
ohn	-1879
indet	-1880
orden	-1881
▁direkt	-1882
▁sh	-1883
▁gol	-1884
▁invest	-1885
enne	-1886
orie	-1887
ängt	-1888
▁oze	-1889
aren	-1890
ismus	-1891
▁herr	-1892
▁neben	-1893
▁zweiten	-1894
▁programm	-1895
▁wes	-1896
yn	-1897
abor	-1898
▁tri	-1899
▁tief	-1900
▁tier	-1901
▁gleichen	-1902
na	-1903
ans	-1904
fiz	-1905
gese	-1906
▁finanz	-1907
▁fühlen	-1908
▁jedoch	-1909
▁chem	-1910
▁kraft	-1911
▁schick	-1912
▁anderer	-1913
▁verschw	-1914
baren	-1915
▁letzte	-1916
▁worden	-1917
▁erle	-1918
▁absol	-1919
▁beste	-1920
▁nachdem	-1921
eig	-1922
▁on	-1923
▁rad	-1924
gegen	-1925
▁auss	-1926
▁zwar	-1927
▁erklär	-1928
▁publik	-1929
▁archite	-1930
▁menschliche	-1931
äus	-1932
innt	-1933
nahme	-1934
▁eher	-1935
▁zahl	-1936
▁fas	-1937
▁lesen	-1938
rop	-1939
▁lässt	-1940
▁bringt	-1941
ager	-1942
▁dun	-1943
▁fahr	-1944
▁wochen	-1945
nov	-1946
▁kom	-1947
▁sek	-1948
▁innov	-1949
▁dingen	-1950
▁hervor	-1951
zept	-1952
▁demok	-1953
▁part	-1954
▁kamen	-1955
▁gedanken	-1956
ive	-1957
stet	-1958
▁pap	-1959
▁guten	-1960
▁bedeut	-1961
▁fer	-1962
ionen	-1963
▁rück	-1964
▁allem	-1965
▁tages	-1966
▁eigene	-1967
▁betrachten	-1968
sta	-1969
zip	-1970
▁12	-1971
bung	-1972
elte	-1973
cker	-1974
▁deu	-1975
▁pfl	-1976
▁bein	-1977
▁york	-1978
▁alter	-1979
tei	-1980
▁25	-1981
▁tage	-1982
▁äl	-1983
▁relig	-1984
▁är	-1985
▁zweite	-1986
▁staaten	-1987
tho	-1988
▁tö	-1989
▁dessen	-1990
▁zehn	-1991
▁erlau	-1992
sichtlich	-1993
▁entwicklung	-1994
▁funktionieren	-1995
eim	-1996
▁fliegen	-1997
▁publikum	-1998
▁sow	-1999
lungs	-2000
ograf	-2001
▁tiere	-2002
▁meines	-2003
▁kranken	-2004
auso	-2005
▁hol	-2006
▁zun	-2007
iet	-2008
arbeit	-2009
▁erinnern	-2010
▁erfahrung	-2011
▁interessant	-2012
stum	-2013
▁trä	-2014
rieden	-2015
▁exist	-2016
▁hilfe	-2017
▁sen	-2018
▁zent	-2019
▁video	-2020
▁genauso	-2021
▁wider	-2022
▁grunde	-2023
▁jungen	-2024
▁information	-2025
jähr	-2026
▁prin	-2027
▁auszu	-2028
▁geist	-2029
▁übr	-2030
▁acht	-2031
▁situ	-2032
▁herausforder	-2033
ja	-2034
ala	-2035
▁zahlen	-2036
▁ris	-2037
anten	-2038
achtet	-2039
▁boden	-2040
▁mussten	-2041
aler	-2042
hlen	-2043
▁plö	-2044
ählen	-2045
▁such	-2046
▁solche	-2047
▁med	-2048
▁verbr	-2049
▁woche	-2050
▁zellen	-2051
▁vertrau	-2052
▁go	-2053
itze	-2054
▁aufzu	-2055
▁schwe	-2056
▁zeich	-2057
▁kaufen	-2058
▁gesicht	-2059
▁welches	-2060
▁schwierig	-2061
rieb	-2062
▁har	-2063
▁sicherheit	-2064
▁mer	-2065
▁schließlich	-2066
teten	-2067
ücher	-2068
achstum	-2069
▁sollen	-2070
▁blick	-2071
▁sterben	-2072
ve	-2073
dete	-2074
▁aufge	-2075
elbe	-2076
▁völ	-2077
eigen	-2078
▁falls	-2079
▁thema	-2080
▁zerst	-2081
▁danach	-2082
▁geschäft	-2083
▁süd	-2084
▁platz	-2085
inde	-2086
kehr	-2087
merk	-2088
▁langsam	-2089
▁eis	-2090
▁samm	-2091
▁team	-2092
▁zuvor	-2093
▁wusste	-2094
▁führt	-2095
▁möglichkeiten	-2096
bau	-2097
spir	-2098
zeigt	-2099
▁wich	-2100
ließen	-2101
▁markt	-2102
▁wären	-2103
▁bleiben	-2104
ure	-2105
uren	-2106
blick	-2107
▁blau	-2108
▁hast	-2109
▁verfü	-2110
▁fragte	-2111
▁verwand	-2112
falls	-2113
immen	-2114
▁aben	-2115
▁modell	-2116
▁technik	-2117
1;	-2118
ue	-2119
führen	-2120
▁&#91;	-2121
▁manche	-2122
▁kreativ	-2123
▁defin	-2124
▁erinner	-2125
3;	-2126
hören	-2127
itzen	-2128
▁benö	-2129
▁empf	-2130
▁&#93;	-2131
▁europ	-2132
▁glücklich	-2133
scht	-2134
bauen	-2135
▁extr	-2136
itiv	-2137
annten	-2138
gebung	-2139
▁größte	-2140
▁monate	-2141
▁verbunden	-2142
▁vergleich	-2143
▁laufen	-2144
▁lösung	-2145
▁entscheiden	-2146
hält	-2147
ächst	-2148
▁neues	-2149
amp	-2150
ont	-2151
▁super	-2152
ib	-2153
cen	-2154
▁lösen	-2155
▁zuerst	-2156
▁plötzlich	-2157
▁verantwort	-2158
igt	-2159
▁lern	-2160
▁aussehen	-2161
auft	-2162
reck	-2163
riff	-2164
nahmen	-2165
▁deren	-2166
▁beschä	-2167
arbeitet	-2168
reten	-2169
▁ihres	-2170
▁nimmt	-2171
▁scheint	-2172
▁ä	-2173
▁fant	-2174
▁schli	-2175
▁extrem	-2176
▁freunde	-2177
les	-2178
wär	-2179
▁spa	-2180
▁zug	-2181
gewöhn	-2182
entlich	-2183
▁überleben	-2184
▁erschaffen	-2185
hren	-2186
▁not	-2187
▁sin	-2188
gefühl	-2189
▁beginnt	-2190
▁politik	-2191
▁verbindung	-2192
▁wissenschaftler	-2193
amer	-2194
▁job	-2195
▁ding	-2196
▁inspir	-2197
▁genannt	-2198
▁gefunden	-2199
▁bar	-2200
▁kri	-2201
kraft	-2202
▁indi	-2203
▁klima	-2204
▁besteht	-2205
▁evolution	-2206
ückt	-2207
alien	-2208
jekte	-2209
▁ersch	-2210
▁gewesen	-2211
▁möchten	-2212
▁familien	-2213
mar	-2214
chter	-2215
▁mache	-2216
▁perfe	-2217
▁gemeinschaft	-2218
▁hör	-2219
▁hinein	-2220
▁entdeck	-2221
sw	-2222
iff	-2223
spro	-2224
alter	-2225
▁allein	-2226
▁völlig	-2227
▁bevölker	-2228
▁künstler	-2229
els	-2230
zug	-2231
▁mite	-2232
▁sex	-2233
▁rein	-2234
▁moral	-2235
▁wil	-2236
▁bist	-2237
gliche	-2238
reiten	-2239
▁aufre	-2240
▁mitein	-2241
▁draußen	-2242
co	-2243
ochen	-2244
▁änder	-2245
▁schritt	-2246
▁intelligen	-2247
▁dig	-2248
▁muster	-2249
ack	-2250
ity	-2251
gende	-2252
▁wahl	-2253
ziehen	-2254
▁ernst	-2255
prochen	-2256
▁wachsen	-2257
▁anfangen	-2258
▁bewegung	-2259
▁richtung	-2260
▁fähigkeit	-2261
▁indu	-2262
▁kont	-2263
▁tradition	-2264
▁jahrhundert	-2265
▁autos	-2266
▁kolle	-2267
eister	-2268
▁vergangen	-2269
igten	-2270
▁raus	-2271
▁digit	-2272
▁transp	-2273
▁überzeu	-2274
▁gegenüber	-2275
▁passieren	-2276
ho	-2277
▁met	-2278
weisen	-2279
▁beeinfl	-2280
▁größten	-2281
▁vortrag	-2282
▁geworden	-2283
▁konzentr	-2284
▁großartig	-2285
ment	-2286
dungen	-2287
▁molek	-2288
▁größer	-2289
▁niemals	-2290
▁durchschnitt	-2291
durch	-2292
▁mitt	-2293
▁toll	-2294
▁stelle	-2295
▁suchen	-2296
ücke	-2297
▁ner	-2298
▁beide	-2299
▁gefähr	-2300
▁beschäf	-2301
▁krankheit	-2302
▁60	-2303
lauf	-2304
line	-2305
▁kal	-2306
atten	-2307
ieten	-2308
zeuge	-2309
▁anal	-2310
gessen	-2311
tragen	-2312
▁medik	-2313
▁antwor	-2314
mt	-2315
▁erd	-2316
▁ter	-2317
▁foto	-2318
▁links	-2319
▁zentr	-2320
samkeit	-2321
xt	-2322
wert	-2323
▁labor	-2324
▁jemals	-2325
▁medien	-2326
▁verloren	-2327
äuf	-2328
▁exp	-2329
▁beru	-2330
▁nord	-2331
zellen	-2332
▁reihe	-2333
▁kleines	-2334
ile	-2335
wirk	-2336
▁nutz	-2337
▁phil	-2338
▁daraus	-2339
▁bekannt	-2340
▁technologien	-2341
▁kil	-2342
▁sehe	-2343
▁erfor	-2344
▁krieg	-2345
▁überw	-2346
▁anzahl	-2347
▁erklären	-2348
▁nachdenken	-2349
▁miteinander	-2350
jen	-2351
▁ans	-2352
ikation	-2353
▁physik	-2354
▁unseres	-2355
lef	-2356
▁ad	-2357
fahr	-2358
elten	-2359
▁nahm	-2360
▁reise	-2361
gesetzt	-2362
▁fehler	-2363
▁wahrheit	-2364
ament	-2365
▁egal	-2366
▁revolution	-2367
gn	-2368
▁kat	-2369
gaben	-2370
otion	-2371
roffen	-2372
▁staat	-2373
▁kleiner	-2374
▁kontroll	-2375
sum	-2376
fort	-2377
äuft	-2378
▁stark	-2379
▁tatsache	-2380
▁iden	-2381
▁teile	-2382
weg	-2383
ance	-2384
ator	-2385
zogen	-2386
änden	-2387
▁gebe	-2388
▁älter	-2389
▁hinaus	-2390
▁bildung	-2391
zw	-2392
äß	-2393
enn	-2394
kle	-2395
bten	-2396
älfte	-2397
▁verle	-2398
▁leicht	-2399
▁aufmerk	-2400
▁gezeigt	-2401
▁schlechte	-2402
ame	-2403
▁199	-2404
▁ser	-2405
ienen	-2406
▁stär	-2407
▁bekommt	-2408
▁gelernt	-2409
▁prinzip	-2410
▁80	-2411
spiele	-2412
▁amerika	-2413
osph	-2414
▁kan	-2415
gangen	-2416
lassen	-2417
▁lieben	-2418
ond	-2419
▁gesp	-2420
▁stimme	-2421
▁geboren	-2422
▁ländern	-2423
▁stellte	-2424
unkte	-2425
▁gebaut	-2426
▁sprach	-2427
▁schlecht	-2428
▁verwendet	-2429
amm	-2430
wend	-2431
▁studenten	-2432
▁mathematik	-2433
▁faszin	-2434
▁interessiert	-2435
fahren	-2436
▁regel	-2437
▁emotion	-2438
▁dna	-2439
▁dor	-2440
▁formen	-2441
▁schrieb	-2442
▁entfernt	-2443
▁tä	-2444
dent	-2445
mung	-2446
▁blut	-2447
gemein	-2448
▁findet	-2449
kre	-2450
äss	-2451
weis	-2452
▁tie	-2453
mente	-2454
▁einfl	-2455
▁herauszu	-2456
▁richtige	-2457
ers	-2458
ian	-2459
▁schä	-2460
▁fahren	-2461
▁soziale	-2462
ktu	-2463
änge	-2464
ative	-2465
▁west	-2466
▁nacht	-2467
▁situation	-2468
fäh	-2469
▁preis	-2470
▁sonst	-2471
iko	-2472
▁bakter	-2473
▁fanden	-2474
▁veröff	-2475
▁anstatt	-2476
▁umgebung	-2477
viel	-2478
▁sym	-2479
▁alten	-2480
▁offensichtlich	-2481
ese	-2482
▁benutzt	-2483
▁brachte	-2484
▁meinung	-2485
▁erreicht	-2486
▁nachzu	-2487
roh	-2488
tzut	-2489
teilt	-2490
lungen	-2491
▁indivi	-2492
haft	-2493
▁miss	-2494
tzutage	-2495
▁bedeutung	-2496
▁heutzutage	-2497
öh	-2498
▁größe	-2499
agieren	-2500
▁bürger	-2501
▁individu	-2502
iesen	-2503
▁plan	-2504
▁wind	-2505
▁ozean	-2506
▁einfache	-2507
▁mitgefühl	-2508
fol	-2509
zer	-2510
icher	-2511
▁männ	-2512
▁metho	-2513
▁mitte	-2514
▁mögen	-2515
▁sonnen	-2516
▁absolut	-2517
▁fantast	-2518
tau	-2519
ware	-2520
▁fuß	-2521
▁anges	-2522
▁gegeben	-2523
▁komplett	-2524
ose	-2525
ren	-2526
krie	-2527
▁zeu	-2528
▁rolle	-2529
▁strom	-2530
▁hälfte	-2531
sprechen	-2532
▁aufgabe	-2533
▁tür	-2534
geführt	-2535
▁stimmt	-2536
▁jemanden	-2537
ry	-2538
tu	-2539
▁tot	-2540
▁bekam	-2541
▁genommen	-2542
▁vorstellung	-2543
auern	-2544
▁engl	-2545
▁hoffe	-2546
▁gingen	-2547
▁instit	-2548
▁übrigen	-2549
ins	-2550
kop	-2551
▁dra	-2552
iment	-2553
▁oper	-2554
▁wann	-2555
▁schmer	-2556
iti	-2557
▁my	-2558
▁poten	-2559
▁zeige	-2560
struktur	-2561
wirtschaft	-2562
mu	-2563
▁sc	-2564
spek	-2565
wind	-2566
▁ind	-2567
▁disk	-2568
▁verurs	-2569
▁erzählt	-2570
üch	-2571
▁fel	-2572
▁urspr	-2573
▁fertig	-2574
▁sofort	-2575
▁hy	-2576
▁nennt	-2577
▁länger	-2578
▁erfolgreich	-2579
▁geschrieben	-2580
▁entwicklungs	-2581
sh	-2582
itzt	-2583
lten	-2584
ändig	-2585
ierend	-2586
▁moder	-2587
▁städte	-2588
▁straßen	-2589
▁erschein	-2590
▁vereinigten	-2591
▁veränderung	-2592
asser	-2593
wegen	-2594
ängen	-2595
▁gere	-2596
▁stre	-2597
▁bücher	-2598
▁voraus	-2599
▁fortschr	-2600
▁oberfläche	-2601
▁nachrichten	-2602
rift	-2603
istan	-2604
▁jung	-2605
▁ähnlich	-2606
▁forschung	-2607
▁car	-2608
▁hiv	-2609
▁diag	-2610
zeitig	-2611
▁meter	-2612
▁online	-2613
▁maschine	-2614
▁trotzdem	-2615
asen	-2616
▁papier	-2617
▁ansehen	-2618
▁versuche	-2619
▁erwachsen	-2620
urt	-2621
▁lok	-2622
▁kamer	-2623
▁experi	-2624
▁setzen	-2625
▁beziehung	-2626
zep	-2627
uchs	-2628
ummer	-2629
▁seiten	-2630
▁ziehen	-2631
▁gesamte	-2632
▁bewusstsein	-2633
rist	-2634
igner	-2635
▁abge	-2636
▁schrei	-2637
▁einfluss	-2638
▁normalerweise	-2639
ales	-2640
▁maß	-2641
▁prak	-2642
ologen	-2643
▁bewegt	-2644
▁gewalt	-2645
▁einzelne	-2646
▁ök	-2647
▁rau	-2648
▁wör	-2649
abhäng	-2650
▁hinzu	-2651
▁kompli	-2652
▁wachstum	-2653
beh	-2654
legt	-2655
verb	-2656
eiden	-2657
lagen	-2658
▁regen	-2659
▁dachten	-2660
▁pflanzen	-2661
▁aufmerksamkeit	-2662
▁11	-2663
chan	-2664
ument	-2665
▁geschieht	-2666
pa	-2667
▁ca	-2668
lage	-2669
▁rede	-2670
eltsam	-2671
▁prote	-2672
▁tragen	-2673
▁hoffnung	-2674
▁kontrolle	-2675
▁vergessen	-2676
▁fähigkeiten	-2677
▁tod	-2678
▁firma	-2679
▁sonne	-2680
▁generation	-2681
▁interessante	-2682
to	-2683
äume	-2684
▁ord	-2685
▁john	-2686
▁prot	-2687
ichtet	-2688
▁finde	-2689
▁regeln	-2690
▁schulen	-2691
▁seltsam	-2692
▁visu	-2693
nation	-2694
▁sorgen	-2695
▁afrikan	-2696
▁gesprochen	-2697
▁herausforderung	-2698
bew	-2699
fre	-2700
gru	-2701
vie	-2702
▁goog	-2703
▁machten	-2704
▁realität	-2705
▁passierte	-2706
lang	-2707
itter	-2708
▁neun	-2709
itäten	-2710
▁präsen	-2711
▁begannen	-2712
▁ergebnis	-2713
▁app	-2714
▁bess	-2715
▁test	-2716
ll	-2717
stu	-2718
umm	-2719
▁th	-2720
alle	-2721
stens	-2722
▁begr	-2723
▁krei	-2724
dessen	-2725
jenigen	-2726
arbeiten	-2727
▁wichtige	-2728
trä	-2729
▁hü	-2730
pfer	-2731
▁sob	-2732
ratie	-2733
▁spaß	-2734
▁druck	-2735
▁kannst	-2736
wo	-2737
▁et	-2738
schu	-2739
▁priv	-2740
▁monat	-2741
▁liegen	-2742
▁produkt	-2743
sor	-2744
glie	-2745
ösen	-2746
▁hig	-2747
▁bald	-2748
▁deine	-2749
▁benutz	-2750
▁identi	-2751
▁straße	-2752
▁erkennt	-2753
▁übrigens	-2754
▁experiment	-2755
▁ton	-2756
daten	-2757
▁dorf	-2758
▁monaten	-2759
▁schneller	-2760
rech	-2761
tist	-2762
digen	-2763
▁nahe	-2764
essour	-2765
▁bemerken	-2766
ieg	-2767
ina	-2768
reg	-2769
ragt	-2770
▁trau	-2771
ograph	-2772
▁einst	-2773
▁leist	-2774
▁spricht	-2775
▁verlieren	-2776
üss	-2777
▁ra	-2778
isst	-2779
▁ant	-2780
▁bot	-2781
▁hab	-2782
▁rechts	-2783
▁gruppen	-2784
▁wussten	-2785
▁richtigen	-2786
ari	-2787
▁16	-2788
▁90	-2789
ktiv	-2790
lige	-2791
▁sim	-2792
▁denkt	-2793
▁sobald	-2794
▁gelegen	-2795
▁gewinnen	-2796
▁internation	-2797
▁—	-2798
ilis	-2799
hnung	-2800
masch	-2801
tikel	-2802
▁sign	-2803
▁weltweit	-2804
▁universität	-2805
ds	-2806
bin	-2807
ull	-2808
▁and	-2809
▁himm	-2810
▁einge	-2811
▁verfol	-2812
▁speziel	-2813
▁kop	-2814
▁mot	-2815
ister	-2816
▁enor	-2817
▁haut	-2818
▁karte	-2819
▁beobachten	-2820
▁gearbeitet	-2821
ath	-2822
schung	-2823
▁gutes	-2824
bildung	-2825
▁großer	-2826
win	-2827
▁redu	-2828
essern	-2829
▁angef	-2830
▁erwäh	-2831
▁vorbei	-2832
▁herauszufinden	-2833
bil	-2834
ierungen	-2835
windigkeit	-2836
▁anschauen	-2837
sion	-2838
▁webs	-2839
▁europa	-2840
▁früher	-2841
indungen	-2842
▁ressour	-2843
▁bestimmt	-2844
▁reaktion	-2845
lex	-2846
ssen	-2847
▁bri	-2848
▁abzu	-2849
wasser	-2850
▁effek	-2851
▁feuer	-2852
▁nachhal	-2853
▁gleichzeitig	-2854
▁af	-2855
▁ga	-2856
ählt	-2857
techn	-2858
▁stamm	-2859
▁train	-2860
▁nachbar	-2861
▁arbeitet	-2862
mod	-2863
zies	-2864
▁wieso	-2865
▁aussieht	-2866
▁außerdem	-2867
▁bedeuten	-2868
▁vertrauen	-2869
▁wichtiger	-2870
ca	-2871
isse	-2872
produ	-2873
ferenz	-2874
schlag	-2875
▁gerät	-2876
▁jahrz	-2877
▁großes	-2878
hör	-2879
▁no	-2880
▁pe	-2881
nete	-2882
pfen	-2883
▁lag	-2884
▁heim	-2885
▁bessere	-2886
stru	-2887
orben	-2888
▁soft	-2889
▁schreck	-2890
▁ermöglich	-2891
ons	-2892
oss	-2893
male	-2894
▁jap	-2895
▁arme	-2896
▁winz	-2897
▁tagen	-2898
▁geschehen	-2899
▁versuchte	-2900
▁innovation	-2901
▁bevölkerung	-2902
▁entscheidungen	-2903
ct	-2904
tzte	-2905
▁baum	-2906
eitung	-2907
▁zufäl	-2908
▁verständ	-2909
▁beispiele	-2910
▁möglichen	-2911
▁demokratie	-2912
▁menschheit	-2913
▁kr	-2914
atte	-2915
artet	-2916
quenz	-2917
gendes	-2918
▁sahen	-2919
▁einzelnen	-2920
machen	-2921
▁keiner	-2922
▁videos	-2923
▁grenzen	-2924
▁konzept	-2925
▁bestimmten	-2926
ox	-2927
ith	-2928
öst	-2929
dert	-2930
schw	-2931
▁bat	-2932
recht	-2933
seite	-2934
ussen	-2935
▁einzu	-2936
▁google	-2937
▁zuminde	-2938
ub	-2939
▁/	-2940
▁14	-2941
mpfen	-2942
schir	-2943
tiger	-2944
▁gala	-2945
▁fisch	-2946
▁schei	-2947
▁bilden	-2948
▁studie	-2949
▁sozialen	-2950
iter	-2951
setzt	-2952
▁armut	-2953
▁japan	-2954
▁taten	-2955
▁gebracht	-2956
ama	-2957
▁gek	-2958
▁see	-2959
eller	-2960
▁fotograf	-2961
▁großartige	-2962
▁verbessern	-2963
ka	-2964
ikt	-2965
▁fü	-2966
itär	-2967
▁kür	-2968
▁san	-2969
▁anti	-2970
▁echte	-2971
▁nenne	-2972
▁chines	-2973
▁ernähr	-2974
▁sowohl	-2975
▁jahrzeh	-2976
▁entdecken	-2977
▁verlassen	-2978
▁leidenschaft	-2979
fik	-2980
ums	-2981
▁fühl	-2982
uchten	-2983
▁david	-2984
▁biolog	-2985
▁sitzen	-2986
▁warten	-2987
▁dadurch	-2988
▁befinden	-2989
▁produzieren	-2990
50	-2991
oph	-2992
lern	-2993
ühne	-2994
▁ker	-2995
▁vol	-2996
▁ziv	-2997
ielle	-2998
orien	-2999
▁orte	-3000
▁rund	-3001
werfen	-3002
▁gebiet	-3003
▁wirklichkeit	-3004
▁vergangenheit	-3005
onie	-3006
rauch	-3007
schul	-3008
üssel	-3009
▁galax	-3010
▁telef	-3011
▁bleibt	-3012
▁spezies	-3013
▁ständig	-3014
▁charakter	-3015
▁verbesser	-3016
▁nachzudenken	-3017
rad	-3018
zte	-3019
▁alte	-3020
nehmer	-3021
▁auswirk	-3022
▁theorie	-3023
▁nachricht	-3024
▁unmöglich	-3025
▁zumindest	-3026
seh	-3027
tag	-3028
▁ta	-3029
▁pil	-3030
▁freu	-3031
▁kern	-3032
tierte	-3033
▁spezi	-3034
osphäre	-3035
▁gesetz	-3036
▁unabhäng	-3037
blich	-3038
deten	-3039
orfen	-3040
zeichnet	-3041
▁million	-3042
▁studien	-3043
lan	-3044
▁wün	-3045
▁opti	-3046
▁näher	-3047
▁schla	-3048
▁region	-3049
▁gekommen	-3050
abel	-3051
gebracht	-3052
▁erlaubt	-3053
hei	-3054
rab	-3055
ital	-3056
▁sohn	-3057
▁brust	-3058
▁dahin	-3059
▁geheim	-3060
▁landes	-3061
▁solchen	-3062
▁rom	-3063
▁orten	-3064
▁konsum	-3065
▁runter	-3066
▁tausende	-3067
licherweise	-3068
ed	-3069
mo	-3070
urg	-3071
ball	-3072
bert	-3073
▁grü	-3074
▁tro	-3075
ossen	-3076
▁deta	-3077
▁spre	-3078
änomen	-3079
▁dritte	-3080
▁hundert	-3081
▁profess	-3082
entlichen	-3083
▁personen	-3084
▁bakterien	-3085
az	-3086
zun	-3087
öpf	-3088
▁erg	-3089
▁lief	-3090
▁sand	-3091
▁zeug	-3092
wissen	-3093
▁arbeits	-3094
▁dritten	-3095
▁aufgrund	-3096
▁irgendwo	-3097
▁sekunden	-3098
▁arbeitete	-3099
▁äu	-3100
feld	-3101
wart	-3102
ühle	-3103
▁bro	-3104
▁lebt	-3105
▁uner	-3106
tischer	-3107
ulation	-3108
▁spielt	-3109
▁statist	-3110
▁erzeugen	-3111
▁software	-3112
▁diejenigen	-3113
▁17	-3114
▁70	-3115
▁wü	-3116
eisch	-3117
genie	-3118
▁ebene	-3119
▁wechs	-3120
ierende	-3121
▁finger	-3122
▁messen	-3123
▁zugang	-3124
▁dasselbe	-3125
▁allgemein	-3126
▁zusammenh	-3127
fs	-3128
ror	-3129
raten	-3130
stern	-3131
▁häuf	-3132
stehen	-3133
peratur	-3134
▁objekt	-3135
sätzlich	-3136
▁ordnung	-3137
▁schüler	-3138
▁befindet	-3139
▁erfahren	-3140
▁»	-3141
ark	-3142
hil	-3143
▁198	-3144
eisen	-3145
▁dien	-3146
▁höhe	-3147
▁berüh	-3148
▁trans	-3149
▁worte	-3150
▁kombin	-3151
▁nahrung	-3152
▁sprachen	-3153
iker	-3154
rise	-3155
▁entwe	-3156
▁voller	-3157
ingungen	-3158
▁medikamen	-3159
nü	-3160
eite	-3161
asche	-3162
▁fein	-3163
sionen	-3164
▁linie	-3165
▁präsi	-3166
▁bisher	-3167
▁fangen	-3168
▁geburt	-3169
▁mittler	-3170
▁globalen	-3171
▁verstand	-3172
▁antworten	-3173
▁amerikaner	-3174
▁herstellen	-3175
▁entschieden	-3176
fa	-3177
ix	-3178
inge	-3179
▁hall	-3180
ichter	-3181
zimmer	-3182
▁spiele	-3183
go	-3184
▁«	-3185
rig	-3186
grün	-3187
stes	-3188
▁mob	-3189
izien	-3190
▁hält	-3191
▁höch	-3192
▁firmen	-3193
▁arbeite	-3194
▁gefragt	-3195
▁welcher	-3196
▁betrachtet	-3197
▁ressourcen	-3198
▁krankenhaus	-3199
ürf	-3200
▁mü	-3201
schä	-3202
herap	-3203
▁naja	-3204
endung	-3205
▁fotos	-3206
▁konfl	-3207
▁einzig	-3208
▁meeres	-3209
▁nummer	-3210
▁partner	-3211
▁riesige	-3212
▁entdeckt	-3213
▁phänomen	-3214
▁schönheit	-3215
▁verbinden	-3216
▁architektur	-3217
▁amerikanischen	-3218
rier	-3219
▁sto	-3220
▁wol	-3221
mmern	-3222
▁wein	-3223
assung	-3224
ativen	-3225
▁innen	-3226
▁altern	-3227
▁handelt	-3228
▁ingenie	-3229
▁englisch	-3230
haf	-3231
ghan	-3232
▁bus	-3233
tiver	-3234
▁erwei	-3235
▁höher	-3236
ständig	-3237
▁ebenso	-3238
▁führte	-3239
▁gefäng	-3240
▁leider	-3241
▁wörter	-3242
▁krankheiten	-3243
größ	-3244
▁log	-3245
▁pau	-3246
▁außen	-3247
▁handeln	-3248
▁ursprün	-3249
▁entweder	-3250
▁flugzeug	-3251
▁überraschen	-3252
▁traf	-3253
▁farbe	-3254
▁sinne	-3255
mension	-3256
schluss	-3257
▁himmel	-3258
▁notwend	-3259
▁verstanden	-3260
get	-3261
itu	-3262
buch	-3263
▁ach	-3264
▁uhr	-3265
volle	-3266
üllen	-3267
▁arzt	-3268
▁hilft	-3269
▁kommunikation	-3270
abr	-3271
ils	-3272
ong	-3273
üll	-3274
▁nü	-3275
ynam	-3276
▁kaum	-3277
ometer	-3278
reitet	-3279
sweise	-3280
trieben	-3281
▁afghan	-3282
▁kohlen	-3283
▁schmerz	-3284
▁designer	-3285
▁zunächst	-3286
▁untersuchen	-3287
reibt	-3288
▁name	-3289
▁unge	-3290
stoffe	-3291
ktionen	-3292
▁einander	-3293
▁vorstell	-3294
▁wunderbar	-3295
▁grundlegen	-3296
arf	-3297
orn	-3298
▁13	-3299
mann	-3300
tzten	-3301
▁cool	-3302
▁mäch	-3303
▁hände	-3304
▁könig	-3305
▁schaut	-3306
▁frieden	-3307
▁gestellt	-3308
▁ei	-3309
▁of	-3310
eits	-3311
ulti	-3312
altet	-3313
ächen	-3314
▁baby	-3315
▁mars	-3316
▁stol	-3317
dienen	-3318
ierter	-3319
laufen	-3320
izieren	-3321
▁erstens	-3322
▁sammeln	-3323
▁unterschei	-3324
oli	-3325
rate	-3326
teile	-3327
▁bege	-3328
▁hirn	-3329
▁ökon	-3330
▁geräu	-3331
erstoff	-3332
▁nieder	-3333
▁punkte	-3334
▁leisten	-3335
▁bestehen	-3336
▁deswegen	-3337
▁national	-3338
▁verkaufen	-3339
▁ergebnisse	-3340
eitet	-3341
inder	-3342
▁läch	-3343
▁ereig	-3344
▁gründe	-3345
▁selben	-3346
▁versor	-3347
▁schwarz	-3348
▁ebenfalls	-3349
▁interesse	-3350
ids	-3351
wür	-3352
▁la	-3353
▁zwe	-3354
▁laut	-3355
schiede	-3356
▁retten	-3357
▁zeigte	-3358
▁gründen	-3359
▁bestimmte	-3360
▁behandlung	-3361
▁ermöglicht	-3362
▁geschaffen	-3363
▁außergewöhn	-3364
pe	-3365
rt	-3366
▁bühne	-3367
▁kreis	-3368
▁plast	-3369
ssystem	-3370
▁beginn	-3371
▁geschah	-3372
▁gesamten	-3373
▁getroffen	-3374
▁erstaunlich	-3375
hi	-3376
stag	-3377
▁kol	-3378
gebaut	-3379
▁unver	-3380
ahrungs	-3381
▁herzen	-3382
▁ehrlich	-3383
▁außerhalb	-3384
mäß	-3385
oma	-3386
▁berg	-3387
▁lust	-3388
▁mark	-3389
▁verz	-3390
schirm	-3391
▁wesen	-3392
▁chance	-3393
▁klasse	-3394
▁wundersch	-3395
▁unglaubliche	-3396
stä	-3397
▁bu	-3398
lose	-3399
▁büro	-3400
▁schm	-3401
▁suche	-3402
zunehmen	-3403
▁kollegen	-3404
▁verrückt	-3405
▁einfachen	-3406
▁einkommen	-3407
▁entscheidung	-3408
▁organisation	-3409
kam	-3410
lam	-3411
äte	-3412
räfte	-3413
schte	-3414
stück	-3415
werke	-3416
äuser	-3417
▁ausw	-3418
▁stei	-3419
▁wohn	-3420
▁bezug	-3421
frieden	-3422
mitteln	-3423
zusagen	-3424
▁erwarten	-3425
cks	-3426
rän	-3427
falt	-3428
samm	-3429
▁pop	-3430
▁säu	-3431
astrop	-3432
iellen	-3433
ktoren	-3434
▁kampf	-3435
▁läuft	-3436
▁indust	-3437
▁biologie	-3438
la	-3439
öse	-3440
▁denk	-3441
▁deut	-3442
▁gewe	-3443
antwor	-3444
▁optim	-3445
▁wohin	-3446
▁letztes	-3447
▁methode	-3448
▁erzählte	-3449
▁irgendein	-3450
▁fortschritt	-3451
▁institution	-3452
kar	-3453
▁för	-3454
▁fund	-3455
rochen	-3456
▁abend	-3457
▁dauer	-3458
▁gehirns	-3459
▁einzigen	-3460
▁herunter	-3461
▁schützen	-3462
▁verständnis	-3463
ps	-3464
apt	-3465
eid	-3466
▁1,	-3467
itann	-3468
organ	-3469
press	-3470
▁hung	-3471
▁klin	-3472
▁betrie	-3473
▁jahres	-3474
▁artikel	-3475
▁erklärt	-3476
▁erfunden	-3477
▁freiheit	-3478
▁zeitpunkt	-3479
ai	-3480
bli	-3481
ehme	-3482
üllt	-3483
▁mär	-3484
▁inse	-3485
▁muse	-3486
▁quad	-3487
▁erinnere	-3488
▁lösungen	-3489
▁21	-3490
▁woh	-3491
▁grad	-3492
▁beweg	-3493
▁gespr	-3494
▁hörte	-3495
▁rechte	-3496
▁ausdruck	-3497
▁schicken	-3498
▁wichtigste	-3499
äst	-3500
geht	-3501
gere	-3502
▁tim	-3503
▁gele	-3504
▁vern	-3505
passen	-3506
▁absch	-3507
▁belie	-3508
▁militär	-3509
▁telefon	-3510
▁zweitens	-3511
▁geschäfts	-3512
ton	-3513
▁dür	-3514
räsen	-3515
▁ausl	-3516
▁darf	-3517
▁high	-3518
▁trag	-3519
nungen	-3520
stände	-3521
▁seines	-3522
▁selten	-3523
▁stunde	-3524
arbeiter	-3525
▁zustand	-3526
▁herausfinden	-3527
ket	-3528
▁hor	-3529
▁rot	-3530
hilfe	-3531
ittel	-3532
seits	-3533
▁auge	-3534
▁ball	-3535
▁fett	-3536
indust	-3537
▁motiv	-3538
▁nahmen	-3539
▁version	-3540
▁behandeln	-3541
zü	-3542
ami	-3543
▁ag	-3544
ahlt	-3545
ffer	-3546
umor	-3547
▁umf	-3548
▁park	-3549
▁tisch	-3550
▁traum	-3551
brechen	-3552
itannien	-3553
▁schlimm	-3554
▁verbrau	-3555
vel	-3556
▁ep	-3557
▁bal	-3558
▁tal	-3559
istor	-3560
altung	-3561
▁motor	-3562
▁spekt	-3563
▁ahnung	-3564
▁kontin	-3565
▁verhin	-3566
▁globale	-3567
industrie	-3568
▁unterstützen	-3569
bed	-3570
anda	-3571
takt	-3572
▁pal	-3573
artig	-3574
rogen	-3575
▁dopp	-3576
▁gehe	-3577
▁hart	-3578
▁mond	-3579
▁infra	-3580
▁endlich	-3581
▁religion	-3582
▁begeister	-3583
▁angefangen	-3584
leg	-3585
ande	-3586
plan	-3587
önen	-3588
▁500	-3589
▁del	-3590
iegen	-3591
▁hört	-3592
ochter	-3593
selben	-3594
alismus	-3595
▁worten	-3596
gefunden	-3597
▁systeme	-3598
▁hunderte	-3599
▁untersuch	-3600
ober	-3601
▁blo	-3602
▁flü	-3603
▁gil	-3604
▁ten	-3605
bewer	-3606
▁aktu	-3607
▁chir	-3608
▁gehir	-3609
▁instr	-3610
▁eigent	-3611
▁gedacht	-3612
▁mehrere	-3613
▁rechten	-3614
▁gefängnis	-3615
▁öffentlichen	-3616
kan	-3617
▁lo	-3618
▁bud	-3619
▁wun	-3620
▁chris	-3621
▁titel	-3622
▁weiss	-3623
▁aussch	-3624
▁position	-3625
▁auswirkungen	-3626
▁fo	-3627
▁arg	-3628
holen	-3629
▁stab	-3630
▁trin	-3631
▁desto	-3632
▁islam	-3633
barkeit	-3634
▁bedürf	-3635
▁erfahr	-3636
▁großbr	-3637
▁erleben	-3638
▁landwirtschaft	-3639
kur	-3640
▁km	-3641
stre	-3642
wick	-3643
▁fen	-3644
auert	-3645
riere	-3646
▁tanz	-3647
▁fällt	-3648
▁seien	-3649
▁philos	-3650
▁verste	-3651
▁nahrungs	-3652
▁netzwerk	-3653
▁entschied	-3654
▁schlüssel	-3655
▁materialien	-3656
üst	-3657
afft	-3658
othe	-3659
reise	-3660
▁bill	-3661
▁nerv	-3662
▁resp	-3663
▁gewal	-3664
▁heran	-3665
▁äußer	-3666
▁strate	-3667
▁zeiten	-3668
▁plastik	-3669
▁gegangen	-3670
▁regierungen	-3671
ibt	-3672
bahn	-3673
▁hey	-3674
▁mut	-3675
ahmen	-3676
frika	-3677
ühren	-3678
▁ganzes	-3679
▁vermut	-3680
▁öffnen	-3681
▁knochen	-3682
▁tochter	-3683
▁klimawand	-3684
▁jahrhunderts	-3685
ron	-3686
sse	-3687
▁sm	-3688
▁dok	-3689
▁tem	-3690
▁merk	-3691
▁wett	-3692
▁angeb	-3693
▁kenne	-3694
▁lasst	-3695
▁liste	-3696
▁abhäng	-3697
▁schutz	-3698
▁spitze	-3699
▁stimmen	-3700
▁industrie	-3701
▁unterhalt	-3702
▁sicherlich	-3703
▁herzustellen	-3704
▁eigenschaften	-3705
pfl	-3706
zut	-3707
▁196	-3708
▁201	-3709
▁tru	-3710
▁gross	-3711
▁komme	-3712
▁fallen	-3713
▁farben	-3714
▁gebrau	-3715
▁massen	-3716
▁mechan	-3717
▁verfüg	-3718
▁sauerstoff	-3719
▁erfahrungen	-3720
▁stattdessen	-3721
▁infrastruktur	-3722
▁großbritannien	-3723
▁x	-3724
bol	-3725
mon	-3726
haup	-3727
iete	-3728
ikas	-3729
osau	-3730
ätze	-3731
▁las	-3732
▁beit	-3733
▁guter	-3734
▁niedr	-3735
▁behaup	-3736
▁kostet	-3737
▁risiko	-3738
▁größeren	-3739
▁bemerkens	-3740
▁ah	-3741
ifor	-3742
▁red	-3743
alist	-3744
▁jene	-3745
▁liebl	-3746
▁neuer	-3747
▁tieren	-3748
▁dorthin	-3749
▁begonnen	-3750
alisierung	-3751
▁entstehen	-3752
▁fernsehen	-3753
▁wichtigsten	-3754
▁konzentrieren	-3755
▁verantwortung	-3756
hy	-3757
sage	-3758
▁zäh	-3759
dings	-3760
maßen	-3761
scher	-3762
▁echt	-3763
▁loch	-3764
▁lond	-3765
▁vari	-3766
liegen	-3767
▁kennt	-3768
▁virus	-3769
▁dunkel	-3770
▁lernte	-3771
▁terror	-3772
▁positiv	-3773
▁neuronen	-3774
▁existiert	-3775
▁komplexität	-3776
▁unterschiede	-3777
prü	-3778
▁ed	-3779
keln	-3780
▁300	-3781
▁ken	-3782
etzen	-3783
▁inte	-3784
▁fluss	-3785
▁klass	-3786
▁freude	-3787
▁wenige	-3788
▁entfern	-3789
▁heutigen	-3790
geschichte	-3791
▁verbringen	-3792
▁as	-3793
▁atm	-3794
▁fok	-3795
ausen	-3796
leist	-3797
wärts	-3798
teilen	-3799
▁osten	-3800
▁werte	-3801
drücken	-3802
ulieren	-3803
▁frühen	-3804
▁fühlte	-3805
▁schlag	-3806
▁schluss	-3807
möglichen	-3808
▁projekte	-3809
▁verursacht	-3810
▁beeinflusst	-3811
▁medikamente	-3812
mpf	-3813
oge	-3814
rah	-3815
geln	-3816
ickt	-3817
▁con	-3818
ühlen	-3819
▁heil	-3820
▁wege	-3821
▁armen	-3822
▁erstes	-3823
▁kamera	-3824
▁schöne	-3825
▁sommer	-3826
▁brauchte	-3827
▁produkte	-3828
▁produziert	-3829
▁beziehungen	-3830
▁geschwindigkeit	-3831
up	-3832
▁gu	-3833
▁jo	-3834
▁zi	-3835
ingu	-3836
▁197	-3837
iforn	-3838
meter	-3839
ragen	-3840
ttern	-3841
▁aufw	-3842
▁drin	-3843
ations	-3844
▁fühle	-3845
▁hielt	-3846
▁besuch	-3847
▁gering	-3848
▁rücken	-3849
▁trifft	-3850
▁bestand	-3851
▁erzeugt	-3852
▁kompliz	-3853
▁jemandem	-3854
▁folgendes	-3855
▁gesundheits	-3856
▁zusammenhang	-3857
gor	-3858
ool	-3859
▁24	-3860
ames	-3861
mmun	-3862
üben	-3863
üsse	-3864
▁web	-3865
▁brot	-3866
▁glas	-3867
▁rech	-3868
schutz	-3869
▁autor	-3870
▁dreht	-3871
▁legen	-3872
▁typen	-3873
▁haupts	-3874
▁größere	-3875
▁nächstes	-3876
▁kreativität	-3877
lück	-3878
ourn	-3879
▁jün	-3880
▁sod	-3881
▁feld	-3882
▁müll	-3883
▁nehme	-3884
▁ärzte	-3885
▁westen	-3886
ierenden	-3887
▁eigenes	-3888
▁materie	-3889
▁spreche	-3890
▁elektron	-3891
▁erlauben	-3892
je	-3893
abt	-3894
maß	-3895
▁wär	-3896
aktiv	-3897
fisch	-3898
krank	-3899
laden	-3900
▁koll	-3901
▁ließ	-3902
▁temp	-3903
▁fühlt	-3904
▁inten	-3905
▁london	-3906
maschine	-3907
▁gefühle	-3908
▁perspek	-3909
kn	-3910
ling	-3911
oper	-3912
ährt	-3913
ießen	-3914
isser	-3915
itive	-3916
losen	-3917
▁aids	-3918
▁blog	-3919
▁gang	-3920
▁mass	-3921
▁weib	-3922
▁bäume	-3923
▁genom	-3924
▁jugend	-3925
▁langen	-3926
▁reisen	-3927
▁sozial	-3928
▁waffen	-3929
▁fenster	-3930
▁deutlich	-3931
▁repräsen	-3932
▁einfacher	-3933
▁interessanter	-3934
▁veränderungen	-3935
▁it	-3936
▁ku	-3937
▁kos	-3938
rifft	-3939
stadt	-3940
▁atom	-3941
▁holz	-3942
▁iran	-3943
bieren	-3944
formen	-3945
▁somit	-3946
▁tolle	-3947
▁wählen	-3948
▁beantwor	-3949
▁weiterhin	-3950
▁aufgenommen	-3951
agne	-3952
arch	-3953
▁neg	-3954
appen	-3955
▁erhö	-3956
▁kauf	-3957
lieben	-3958
tember	-3959
▁stolz	-3960
▁fällen	-3961
▁reicht	-3962
▁einsatz	-3963
▁entlang	-3964
▁sekunde	-3965
▁freunden	-3966
▁maschinen	-3967
▁allerdings	-3968
imp	-3969
gier	-3970
künf	-3971
leun	-3972
▁wal	-3973
ilien	-3974
▁fran	-3975
▁leid	-3976
▁vorh	-3977
▁besor	-3978
▁starb	-3979
setzung	-3980
▁drehen	-3981
▁result	-3982
▁vertei	-3983
▁konstru	-3984
▁verhält	-3985
▁geschafft	-3986
▁temperatur	-3987
▁afghanistan	-3988
▁auseinander	-3989
▁gelegenheit	-3990
▁lebensmittel	-3991
anke	-3992
anne	-3993
stab	-3994
▁imp	-3995
bruch	-3996
krieg	-3997
wechs	-3998
▁band	-3999
▁geor	-4000
▁eröff	-4001
▁roten	-4002
verständ	-4003
▁schrift	-4004
bi	-4005
spl	-4006
amin	-4007
fest	-4008
ogel	-4009
text	-4010
▁kir	-4011
hause	-4012
▁golf	-4013
digung	-4014
ielten	-4015
vollen	-4016
▁niger	-4017
▁wirst	-4018
▁zelle	-4019
entwick	-4020
▁passen	-4021
▁fleisch	-4022
▁relativ	-4023
▁richard	-4024
▁zivilis	-4025
▁benötigt	-4026
▁produktion	-4027
fil	-4028
vis	-4029
ford	-4030
wood	-4031
▁eth	-4032
▁sub	-4033
gress	-4034
mögen	-4035
örung	-4036
▁port	-4037
▁spür	-4038
tation	-4039
greifen	-4040
▁gewöhn	-4041
▁begriff	-4042
▁drittel	-4043
▁genutzt	-4044
▁experimen	-4045
▁sozusagen	-4046
geschlossen	-4047
▁irgendwann	-4048
zy	-4049
ana	-4050
sagen	-4051
▁frem	-4052
▁halte	-4053
osystem	-4054
spieler	-4055
tisches	-4056
▁selber	-4057
▁werfen	-4058
▁klassen	-4059
dimension	-4060
▁universums	-4061
▁vollkommen	-4062
▁verbindungen	-4063
ac	-4064
eff	-4065
urm	-4066
rael	-4067
▁mex	-4068
▁sal	-4069
tiere	-4070
tzungen	-4071
▁häufig	-4072
▁sodass	-4073
▁wunsch	-4074
▁gewicht	-4075
▁nochmal	-4076
▁gefangen	-4077
▁stellten	-4078
▁kilometer	-4079
asi	-4080
ote	-4081
lege	-4082
twas	-4083
▁ign	-4084
▁habt	-4085
testen	-4086
▁dynam	-4087
▁metap	-4088
bereich	-4089
▁klingt	-4090
▁kunden	-4091
▁lautet	-4092
▁verwir	-4093
zwischen	-4094
▁dagegen	-4095
▁stecken	-4096
▁wahrneh	-4097
▁insekten	-4098
▁werkzeug	-4099
▁werkzeuge	-4100
▁erforschen	-4101
par	-4102
gien	-4103
stau	-4104
▁che	-4105
▁syn	-4106
▁face	-4107
▁gold	-4108
▁stil	-4109
gruppe	-4110
ration	-4111
jährige	-4112
▁berühm	-4113
▁linken	-4114
▁bezahlen	-4115
▁effizien	-4116
▁weiteres	-4117
▁benötigen	-4118
▁botschaft	-4119
▁verhaltens	-4120
▁bedingungen	-4121
▁yo	-4122
ckte	-4123
ende	-4124
otyp	-4125
markt	-4126
teles	-4127
zlich	-4128
▁hund	-4129
▁nähe	-4130
▁steu	-4131
▁trei	-4132
tigung	-4133
▁schäd	-4134
spielen	-4135
stellte	-4136
▁bitten	-4137
▁sauber	-4138
▁vision	-4139
▁ökosystem	-4140
▁vermutlich	-4141
▁investieren	-4142
▁kontrollieren	-4143
▁ev	-4144
book	-4145
▁daß	-4146
krebs	-4147
▁gilt	-4148
▁orig	-4149
▁them	-4150
▁umzu	-4151
treten	-4152
▁ignor	-4153
▁roman	-4154
fiziert	-4155
vention	-4156
zusehen	-4157
▁sterne	-4158
zeichnen	-4159
▁patient	-4160
▁zentrum	-4161
▁erinnert	-4162
▁standard	-4163
▁intelligenz	-4164
arm	-4165
digt	-4166
iden	-4167
ttet	-4168
▁000	-4169
fälle	-4170
ätsel	-4171
▁arab	-4172
▁dick	-4173
▁dreh	-4174
▁irak	-4175
untern	-4176
▁basis	-4177
▁solch	-4178
▁dennoch	-4179
▁unsicht	-4180
▁aufgaben	-4181
▁intervie	-4182
▁konferenz	-4183
▁verfügung	-4184
▁natürliche	-4185
▁entwicklungsl	-4186
▁gesellschaften	-4187
üle	-4188
▁1.	-4189
▁asp	-4190
▁mel	-4191
▁sil	-4192
▁tex	-4193
▁zit	-4194
stein	-4195
▁halb	-4196
▁null	-4197
▁umge	-4198
gorith	-4199
heorie	-4200
nissen	-4201
▁akzep	-4202
▁begeg	-4203
▁töten	-4204
ierungs	-4205
▁israel	-4206
▁meilen	-4207
▁schwei	-4208
▁vorber	-4209
osaurier	-4210
▁schafft	-4211
▁zuhause	-4212
▁gewonnen	-4213
▁scheinen	-4214
▁politische	-4215
cy	-4216
abe	-4217
izei	-4218
▁20.	-4219
▁dün	-4220
▁end	-4221
▁hom	-4222
dingt	-4223
▁city	-4224
mutter	-4225
umente	-4226
▁austr	-4227
▁freiw	-4228
▁multi	-4229
▁ansatz	-4230
▁ändert	-4231
minister	-4232
▁kämpfen	-4233
▁perfekt	-4234
▁großteil	-4235
▁karriere	-4236
▁zufällig	-4237
▁entwerfen	-4238
▁strukturen	-4239
▁ermöglichen	-4240
▁wesentlichen	-4241
hle	-4242
ente	-4243
loss	-4244
omie	-4245
artige	-4246
gleich	-4247
riffen	-4248
▁gaben	-4249
▁gefäl	-4250
▁masse	-4251
▁todes	-4252
steller	-4253
▁diagno	-4254
▁entspr	-4255
▁kurzem	-4256
▁diskuss	-4257
▁mitglie	-4258
▁verkehr	-4259
▁modernen	-4260
▁teilchen	-4261
▁weiteren	-4262
▁wiederum	-4263
▁beschreiben	-4264
▁politischen	-4265
▁unternehmer	-4266
▁wunderschön	-4267
▁durchgeführt	-4268
lü	-4269
opp	-4270
▁wa	-4271
▁üb	-4272
▁erl	-4273
▁mos	-4274
▁ske	-4275
igung	-4276
neten	-4277
▁fragt	-4278
▁klang	-4279
▁sitzt	-4280
▁bauern	-4281
▁buchstä	-4282
▁kontakt	-4283
▁verrück	-4284
▁besitzen	-4285
▁verkauft	-4286
▁vielfalt	-4287
▁reagieren	-4288
▁verdienen	-4289
▁vollständig	-4290
▁möglicherweise	-4291
ley	-4292
mel	-4293
bewe	-4294
klus	-4295
netz	-4296
▁saß	-4297
folge	-4298
ichen	-4299
▁beruf	-4300
▁colle	-4301
▁zusch	-4302
teilung	-4303
▁bienen	-4304
▁histor	-4305
jährigen	-4306
▁fernseh	-4307
▁identit	-4308
▁männern	-4309
alisieren	-4310
▁dieselbe	-4311
▁gemeinde	-4312
▁meistens	-4313
▁riesigen	-4314
▁behandelt	-4315
▁philosoph	-4316
▁unbedingt	-4317
▁zufrieden	-4318
▁amerikanische	-4319
▁herausgefunden	-4320
amb	-4321
ged	-4322
unt	-4323
iell	-4324
ille	-4325
sinn	-4326
▁150	-4327
▁bru	-4328
▁astr	-4329
▁fach	-4330
▁abges	-4331
▁sport	-4332
▁stein	-4333
▁stoff	-4334
▁mitten	-4335
▁zucker	-4336
▁spieler	-4337
▁tausend	-4338
▁gewissen	-4339
▁qualität	-4340
▁ausbildung	-4341
ump	-4342
▁ol	-4343
enze	-4344
jahr	-4345
▁dom	-4346
▁fei	-4347
aptop	-4348
erken	-4349
frage	-4350
heben	-4351
stimm	-4352
zität	-4353
▁bank	-4354
▁kaffe	-4355
▁liter	-4356
▁schlau	-4357
entlicht	-4358
schlagen	-4359
▁gestern	-4360
▁industr	-4361
▁objekte	-4362
▁umgehen	-4363
▁überras	-4364
▁gegensei	-4365
▁wettbewer	-4366
▁gefährlich	-4367
▁beschäftigt	-4368
▁beeinflussen	-4369
▁hauptsächlich	-4370
▁ke	-4371
▁tw	-4372
fern	-4373
pfel	-4374
▁hyp	-4375
gebil	-4376
▁fabr	-4377
▁getr	-4378
▁impf	-4379
▁klei	-4380
modell	-4381
▁affen	-4382
▁davor	-4383
▁extra	-4384
▁journ	-4385
▁berech	-4386
▁hinweg	-4387
▁karten	-4388
▁lachen	-4389
▁ameisen	-4390
▁unglück	-4391
▁bildungs	-4392
▁effektiv	-4393
▁beschleun	-4394
▁katastrop	-4395
▁milliarde	-4396
▁übertragen	-4397
▁hintergrund	-4398
▁hoffentlich	-4399
▁kommunizieren	-4400
far	-4401
▁cl	-4402
▁ox	-4403
bank	-4404
gern	-4405
▁zut	-4406
haben	-4407
▁text	-4408
zeiten	-4409
▁furch	-4410
gewicht	-4411
organis	-4412
quenzen	-4413
▁religi	-4414
▁rätsel	-4415
▁demokra	-4416
▁geführt	-4417
▁irgende	-4418
▁kaliforn	-4419
▁atmosphäre	-4420
▁wunderbare	-4421
▁klimawandel	-4422
▁letztendlich	-4423
ban	-4424
▁fle	-4425
▁inn	-4426
halte	-4427
platz	-4428
▁prim	-4429
▁angew	-4430
▁solar	-4431
▁vogel	-4432
▁woher	-4433
▁museum	-4434
▁falsche	-4435
▁neugier	-4436
▁polizei	-4437
▁gelangen	-4438
▁erstellen	-4439
▁überzeugen	-4440
▁irgendetwas	-4441
▁veröffentlicht	-4442
ada	-4443
del	-4444
ens	-4445
▁mc	-4446
angt	-4447
fter	-4448
ttel	-4449
ufen	-4450
▁400	-4451
macht	-4452
werte	-4453
▁ehem	-4454
▁getö	-4455
▁rand	-4456
afrika	-4457
schule	-4458
▁symme	-4459
▁virtu	-4460
zeichen	-4461
änglich	-4462
▁drogen	-4463
▁liefer	-4464
▁nerven	-4465
▁geschle	-4466
▁worüber	-4467
▁facebook	-4468
▁schwester	-4469
▁augenblick	-4470
▁buchstäblich	-4471
ov	-4472
rag	-4473
▁nö	-4474
band	-4475
eien	-4476
fach	-4477
inne	-4478
ramm	-4479
ächt	-4480
▁col	-4481
ietet	-4482
tiker	-4483
▁enth	-4484
▁pfer	-4485
gramme	-4486
▁beine	-4487
▁jungs	-4488
▁kurze	-4489
▁laden	-4490
▁minde	-4491
▁studi	-4492
sichtig	-4493
▁integr	-4494
richtungen	-4495
▁fundament	-4496
▁verbracht	-4497
▁dinosaurier	-4498
▁entwickelten	-4499
▁verantwortlich	-4500
▁zusammenarbeit	-4501
▁ac	-4502
▁vö	-4503
esch	-4504
hört	-4505
▁mem	-4506
▁nan	-4507
trieb	-4508
▁gras	-4509
proble	-4510
▁angel	-4511
▁babys	-4512
▁flüss	-4513
▁frank	-4514
▁franz	-4515
▁hängt	-4516
▁laufe	-4517
▁sogen	-4518
▁analys	-4519
▁mütter	-4520
▁gewisser	-4521
▁leistung	-4522
▁nützlich	-4523
▁schwarze	-4524
▁problemen	-4525
▁hergestellt	-4526
▁unterstützung	-4527
gyp	-4528
ägt	-4529
▁cy	-4530
ante	-4531
läss	-4532
▁wik	-4533
ement	-4534
hafte	-4535
ologe	-4536
▁2000	-4537
▁grös	-4538
▁hohe	-4539
▁sexu	-4540
istenz	-4541
▁hohen	-4542
▁teuer	-4543
▁total	-4544
geladen	-4545
schauen	-4546
▁bedroh	-4547
▁dauert	-4548
▁zukünf	-4549
▁fragten	-4550
▁mission	-4551
▁städten	-4552
chtigkeit	-4553
▁eindruck	-4554
▁erwartet	-4555
ara	-4556
rup	-4557
dige	-4558
tert	-4559
▁ehe	-4560
▁seh	-4561
▁wow	-4562
▁bett	-4563
▁pingu	-4564
▁steckt	-4565
▁symbol	-4566
▁testen	-4567
richtung	-4568
▁alleine	-4569
▁erzähle	-4570
▁geschen	-4571
▁welchen	-4572
zubringen	-4573
▁angesehen	-4574
▁gestalten	-4575
▁schlimmer	-4576
▁begeistert	-4577
▁organisationen	-4578
mil	-4579
▁bom	-4580
▁gas	-4581
▁kra	-4582
▁mund	-4583
rucken	-4584
▁erzie	-4585
▁setzt	-4586
▁weder	-4587
▁erster	-4588
▁lieber	-4589
▁nannte	-4590
▁norden	-4591
▁brauche	-4592
▁einiger	-4593
▁elektro	-4594
▁kontext	-4595
▁reichen	-4596
▁aufhören	-4597
▁entsteht	-4598
▁ungewöhn	-4599
▁aktivität	-4600
▁bildschirm	-4601
▁verbreitet	-4602
kr	-4603
dia	-4604
pre	-4605
zäh	-4606
▁ki	-4607
adem	-4608
terie	-4609
träge	-4610
▁bloß	-4611
▁halt	-4612
▁drama	-4613
▁könnt	-4614
ständen	-4615
▁schaff	-4616
▁themen	-4617
alisiert	-4618
▁schnitt	-4619
▁soldaten	-4620
▁verfolgen	-4621
▁persönlich	-4622
▁verhindern	-4623
▁versuchten	-4624
▁vergleichen	-4625
▁bio	-4626
▁emp	-4627
▁rat	-4628
▁ecke	-4629
▁szen	-4630
▁wild	-4631
▁filme	-4632
▁christ	-4633
▁einsch	-4634
▁geräte	-4635
▁gewebe	-4636
▁haufen	-4637
▁häuser	-4638
▁begrenz	-4639
▁college	-4640
▁element	-4641
▁morgens	-4642
▁steigen	-4643
▁schließen	-4644
▁perspektive	-4645
dy	-4646
uz	-4647
vin	-4648
▁gä	-4649
ippe	-4650
▁ass	-4651
▁cha	-4652
▁fak	-4653
▁nas	-4654
▁bras	-4655
▁intu	-4656
▁ägyp	-4657
▁brenn	-4658
▁unend	-4659
▁wahre	-4660
▁wisst	-4661
herapie	-4662
tierten	-4663
▁intens	-4664
▁schock	-4665
▁depress	-4666
▁getötet	-4667
▁kümmern	-4668
▁besseren	-4669
▁betrifft	-4670
▁galaxien	-4671
▁normalen	-4672
▁experimente	-4673
▁investition	-4674
ole	-4675
zur	-4676
▁35	-4677
stel	-4678
▁ban	-4679
▁wäh	-4680
auber	-4681
nimmt	-4682
reite	-4683
▁russ	-4684
▁sitz	-4685
▁wald	-4686
▁bewir	-4687
▁stift	-4688
bewesen	-4689
▁laptop	-4690
▁planet	-4691
▁wandel	-4692
▁anderem	-4693
▁bildern	-4694
▁normale	-4695
▁spiegel	-4696
▁verkauf	-4697
▁vorteil	-4698
▁zeichen	-4699
▁präsident	-4700
▁schwimmen	-4701
▁vorhanden	-4702
▁ap	-4703
▁rä	-4704
idem	-4705
skop	-4706
▁pen	-4707
▁prü	-4708
▁ruh	-4709
impan	-4710
▁anru	-4711
▁lauf	-4712
▁maus	-4713
▁prop	-4714
▁satz	-4715
▁witz	-4716
swesen	-4717
▁parad	-4718
▁restau	-4719
ologische	-4720
▁algorith	-4721
▁praktisch	-4722
▁verlangen	-4723
▁interaktion	-4724
▁interagieren	-4725
sb	-4726
ieß	-4727
gton	-4728
holt	-4729
sver	-4730
▁dur	-4731
▁hum	-4732
usion	-4733
▁bekä	-4734
▁ment	-4735
▁demon	-4736
▁holen	-4737
▁mobil	-4738
hington	-4739
▁automa	-4740
▁erhält	-4741
▁gefahr	-4742
▁gehabt	-4743
▁schlie	-4744
ographie	-4745
▁gesetze	-4746
▁überprü	-4747
blichkeit	-4748
▁experten	-4749
▁gehalten	-4750
▁komplexe	-4751
▁kürzlich	-4752
▁schimpan	-4753
▁aufregend	-4754
technologie	-4755
▁kalifornien	-4756
▁kohlenstoff	-4757
▁erstaunliche	-4758
▁interessieren	-4759
lev	-4760
oth	-4761
rid	-4762
test	-4763
▁tue	-4764
ändert	-4765
▁beloh	-4766
▁konse	-4767
▁paten	-4768
meister	-4769
▁heimat	-4770
▁privat	-4771
▁riesen	-4772
▁wächst	-4773
▁modelle	-4774
▁überzeugt	-4775
▁forschungs	-4776
▁organismen	-4777
▁washington	-4778
▁verschwinden	-4779
tan	-4780
ößen	-4781
▁lan	-4782
▁tor	-4783
▁eure	-4784
▁insel	-4785
▁opfer	-4786
▁tiefe	-4787
achtung	-4788
▁10.000	-4789
▁zimmer	-4790
programm	-4791
▁basiert	-4792
▁genauer	-4793
ungskraft	-4794
▁mögliche	-4795
▁gestorben	-4796
▁identität	-4797
▁definition	-4798
wissenschaft	-4799
ym	-4800
sal	-4801
von	-4802
▁99	-4803
serv	-4804
▁les	-4805
▁ven	-4806
▁zog	-4807
fügen	-4808
▁code	-4809
▁jobs	-4810
▁paul	-4811
▁zuge	-4812
reffen	-4813
werten	-4814
▁radik	-4815
▁garten	-4816
▁kräfte	-4817
▁sparen	-4818
▁elektri	-4819
▁kriegen	-4820
▁kindheit	-4821
▁lebewesen	-4822
▁überrascht	-4823
lett	-4824
sich	-4825
▁ros	-4826
gerät	-4827
komme	-4828
▁mess	-4829
▁stat	-4830
atoren	-4831
uliert	-4832
▁weißt	-4833
▁wuchs	-4834
▁dienst	-4835
▁gewinn	-4836
▁inhalt	-4837
▁korrup	-4838
▁steuer	-4839
▁schönen	-4840
▁seitdem	-4841
▁entschul	-4842
▁existieren	-4843
▁0	-4844
gas	-4845
kla	-4846
rum	-4847
uar	-4848
heim	-4849
▁ausr	-4850
▁zell	-4851
fische	-4852
versor	-4853
▁block	-4854
▁lernt	-4855
▁sowie	-4856
▁viren	-4857
▁beweis	-4858
▁drüben	-4859
▁glaubt	-4860
▁meiste	-4861
▁weißen	-4862
▁bemerkt	-4863
▁charles	-4864
▁gehirne	-4865
▁annehmen	-4866
▁erfinden	-4867
▁korallen	-4868
▁zurückzu	-4869
▁geheimnis	-4870
▁erkenntnis	-4871
▁mindestens	-4872
▁verbreiten	-4873
▁verwandeln	-4874
▁fantastisch	-4875
gl	-4876
▁$	-4877
deu	-4878
för	-4879
kor	-4880
▁gü	-4881
lieb	-4882
tial	-4883
▁deb	-4884
▁ech	-4885
▁ill	-4886
▁tom	-4887
kreis	-4888
tiges	-4889
iertes	-4890
zeugen	-4891
▁musst	-4892
▁trend	-4893
▁bruder	-4894
▁deinen	-4895
▁heisst	-4896
▁händen	-4897
▁rahmen	-4898
fizieren	-4899
▁moderne	-4900
▁verzwei	-4901
▁schlagen	-4902
▁restauran	-4903
▁unterscheiden	-4904
lad	-4905
▁hi	-4906
▁amp	-4907
▁rie	-4908
frist	-4909
▁post	-4910
▁wurz	-4911
werden	-4912
▁aufst	-4913
▁fängt	-4914
▁handy	-4915
istisch	-4916
ptember	-4917
schrift	-4918
▁doktor	-4919
▁dürfen	-4920
▁fische	-4921
▁helden	-4922
▁minute	-4923
▁schiff	-4924
▁verblü	-4925
▁england	-4926
▁inneren	-4927
▁steuern	-4928
▁anwenden	-4929
▁elemente	-4930
▁moleküle	-4931
▁einsetzen	-4932
▁interview	-4933
▁erscheinen	-4934
▁erwachsenen	-4935
▁traditionellen	-4936
▁öffentlichkeit	-4937
tro	-4938
▁nu	-4939
▁zü	-4940
vier	-4941
▁klu	-4942
▁len	-4943
▁roh	-4944
geber	-4945
inter	-4946
tigte	-4947
▁dran	-4948
▁lass	-4949
chnung	-4950
jekten	-4951
▁still	-4952
▁trägt	-4953
▁grafik	-4954
▁schien	-4955
▁bekamen	-4956
▁bezahlt	-4957
▁starten	-4958
▁täglich	-4959
▁videosp	-4960
▁zunehmen	-4961
▁emotionen	-4962
▁entworfen	-4963
▁verfügbar	-4964
▁zeitalter	-4965
▁angenommen	-4966
▁eingesetzt	-4967
▁öffentliche	-4968
uß	-4969
wa	-4970
com	-4971
▁45	-4972
iven	-4973
sätz	-4974
▁bon	-4975
▁tab	-4976
▁unw	-4977
▁usw	-4978
liten	-4979
▁cent	-4980
▁fuhr	-4981
▁jähr	-4982
▁roll	-4983
▁stau	-4984
stelle	-4985
artigen	-4986
▁echten	-4987
▁europä	-4988
▁starke	-4989
▁theater	-4990
▁bestimmen	-4991
▁betroffen	-4992
▁gegenteil	-4993
▁mittleren	-4994
▁entwickelte	-4995
▁elektrizität	-4996
▁grundlegende	-4997
gro	-4998
jem	-4999
lös	-5000
▁il	-5001
wegs	-5002
üste	-5003
▁bra	-5004
▁süß	-5005
▁rote	-5006
lionen	-5007
▁behin	-5008
▁bibli	-5009
▁erleb	-5010
▁lebte	-5011
ordnung	-5012
▁auftau	-5013
▁beinah	-5014
▁kurzen	-5015
▁willen	-5016
▁beinhal	-5017
▁führung	-5018
▁wenigen	-5019
▁weltraum	-5020
▁lieblings	-5021
▁professor	-5022
▁september	-5023
▁schlechten	-5024
▁wahrnehmung	-5025
sc	-5026
izi	-5027
tex	-5028
öpfe	-5029
▁mas	-5030
ischt	-5031
▁fiel	-5032
▁kogn	-5033
kehren	-5034
kosten	-5035
▁domin	-5036
▁hallo	-5037
▁quasi	-5038
amerika	-5039
▁bieten	-5040
▁entsch	-5041
▁überle	-5042
▁twitter	-5043
▁brachten	-5044
▁interpre	-5045
▁konflikt	-5046
stellungen	-5047
▁gegensatz	-5048
▁irgendjem	-5049
▁entdeckung	-5050
▁entstanden	-5051
▁grundsätzlich	-5052
hel	-5053
bares	-5054
tiven	-5055
▁boot	-5056
utzung	-5057
▁franc	-5058
▁radio	-5059
▁tumor	-5060
▁ziele	-5061
▁darwin	-5062
▁kaffee	-5063
▁müsste	-5064
▁setzte	-5065
▁verlie	-5066
bewegung	-5067
▁details	-5068
▁einheit	-5069
▁gedanke	-5070
▁körpers	-5071
▁langwei	-5072
▁werbung	-5073
▁beschrän	-5074
▁entgegen	-5075
▁erkannte	-5076
▁gefahren	-5077
▁besondere	-5078
▁schwarzen	-5079
▁zerstören	-5080
▁institutionen	-5081
2-	-5082
by	-5083
har	-5084
let	-5085
pol	-5086
▁ul	-5087
▁teu	-5088
besch	-5089
passt	-5090
▁kerl	-5091
▁volk	-5092
fragen	-5093
▁folge	-5094
▁hyper	-5095
▁milch	-5096
▁nutzt	-5097
▁sucht	-5098
▁times	-5099
▁unbek	-5100
▁weile	-5101
führung	-5102
ächtnis	-5103
▁aufgew	-5104
▁lehren	-5105
▁zählen	-5106
▁ansicht	-5107
▁gewisse	-5108
▁kapital	-5109
▁respekt	-5110
▁schaute	-5111
▁stärker	-5112
▁behalten	-5113
▁individuen	-5114
▁beantworten	-5115
▁unterschiedlich	-5116
fir	-5117
met	-5118
yse	-5119
aria	-5120
ulpt	-5121
▁off	-5122
schau	-5123
kistan	-5124
▁disku	-5125
▁gehör	-5126
▁hotel	-5127
▁schne	-5128
▁stimm	-5129
▁wagen	-5130
▁zweck	-5131
flächen	-5132
▁dauern	-5133
stellten	-5134
▁intelle	-5135
▁schaden	-5136
▁einstein	-5137
▁forscher	-5138
▁nachbarn	-5139
▁nationen	-5140
▁prototyp	-5141
▁zerstört	-5142
▁brauchten	-5143
▁erscheint	-5144
▁studieren	-5145
▁überlegen	-5146
▁arbeiteten	-5147
▁entspricht	-5148
▁verbrachte	-5149
▁schrecklich	-5150
fun	-5151
war	-5152
äne	-5153
▁sl	-5154
anen	-5155
olly	-5156
ular	-5157
▁anb	-5158
▁wom	-5159
dient	-5160
▁glam	-5161
▁zuzu	-5162
spruch	-5163
▁anrei	-5164
▁halbe	-5165
▁musli	-5166
▁chemik	-5167
▁fehlen	-5168
▁hoffen	-5169
▁lebten	-5170
▁schlaf	-5171
▁gelesen	-5172
fähigkeit	-5173
▁notwendig	-5174
▁inspiriert	-5175
▁medikament	-5176
▁schlechter	-5177
▁wesentlich	-5178
▁beschlossen	-5179
▁entsprechen	-5180
▁selbstverständ	-5181
ex	-5182
kä	-5183
amt	-5184
ones	-5185
rick	-5186
▁feu	-5187
zelle	-5188
ängst	-5189
▁worl	-5190
▁zahn	-5191
aturen	-5192
▁bietet	-5193
▁george	-5194
▁ließen	-5195
▁soviel	-5196
▁zauber	-5197
▁auswahl	-5198
▁beweise	-5199
▁glamour	-5200
▁install	-5201
▁viertel	-5202
mensionen	-5203
▁abhängig	-5204
▁geändert	-5205
▁hinsicht	-5206
▁kulturen	-5207
ologischen	-5208
▁erklärung	-5209
▁operation	-5210
▁westlichen	-5211
▁natürlichen	-5212
dit	-5213
mor	-5214
use	-5215
utt	-5216
itel	-5217
nern	-5218
sser	-5219
▁dre	-5220
fahrt	-5221
fähig	-5222
▁aufs	-5223
▁dach	-5224
▁kosm	-5225
▁rief	-5226
▁wahn	-5227
muster	-5228
▁kohle	-5229
▁vorzu	-5230
▁world	-5231
alisten	-5232
▁anwend	-5233
▁astron	-5234
▁gegend	-5235
▁kochen	-5236
▁quelle	-5237
▁rechen	-5238
▁streit	-5239
▁gefällt	-5240
▁quadrat	-5241
▁website	-5242
▁überein	-5243
▁aufbauen	-5244
▁besessen	-5245
▁geräusch	-5246
▁komponen	-5247
▁schätzen	-5248
▁vorfahren	-5249
▁wichtigen	-5250
▁reduzieren	-5251
▁verbessert	-5252
,5	-5253
ipe	-5254
berg	-5255
iten	-5256
kopf	-5257
kton	-5258
▁air	-5259
▁gre	-5260
▁täu	-5261
fluss	-5262
schlä	-5263
▁fehl	-5264
derung	-5265
gesell	-5266
iziert	-5267
▁krise	-5268
▁stufe	-5269
systeme	-5270
▁aspekt	-5271
▁beteil	-5272
▁chemie	-5273
▁school	-5274
▁steigt	-5275
▁erkrank	-5276
▁fischer	-5277
▁gebeten	-5278
▁malaria	-5279
▁molekül	-5280
▁verdopp	-5281
▁pakistan	-5282
▁ungleich	-5283
▁vertraut	-5284
▁politiker	-5285
▁verbindet	-5286
unternehmen	-5287
▁beobachtet	-5288
▁landschaft	-5289
▁vermitteln	-5290
▁schimpansen	-5291
▁generationen	-5292
yr	-5293
ise	-5294
res	-5295
uhr	-5296
önt	-5297
rige	-5298
▁got	-5299
nungs	-5300
▁atem	-5301
▁bele	-5302
▁gäbe	-5303
▁live	-5304
gehend	-5305
▁damen	-5306
stimmen	-5307
▁ausmaß	-5308
▁erlebt	-5309
▁furcht	-5310
▁herein	-5311
▁lustig	-5312
▁ökonom	-5313
amerikan	-5314
▁francis	-5315
▁französ	-5316
▁gehören	-5317
▁spannen	-5318
▁vergröß	-5319
▁wohlstand	-5320
▁bewegungen	-5321
▁korruption	-5322
▁zugänglich	-5323
▁irgendjemand	-5324
▁unterrichten	-5325
ns	-5326
ael	-5327
hre	-5328
▁ew	-5329
▁sä	-5330
ühlt	-5331
▁gal	-5332
eilen	-5333
riffe	-5334
▁baut	-5335
▁frie	-5336
üchern	-5337
▁bemüh	-5338
▁enden	-5339
▁gehol	-5340
▁passt	-5341
▁start	-5342
▁verpf	-5343
▁übrig	-5344
itation	-5345
▁ausser	-5346
▁dunkle	-5347
▁effekt	-5348
▁gelöst	-5349
▁grenze	-5350
▁beinahe	-5351
▁spielte	-5352
▁verhand	-5353
▁gespielt	-5354
▁methoden	-5355
▁aufgebaut	-5356
▁diskussion	-5357
möglichkeiten	-5358
ls	-5359
bas	-5360
ehm	-5361
urf	-5362
zig	-5363
frei	-5364
hung	-5365
kung	-5366
▁abw	-5367
▁fig	-5368
▁fru	-5369
▁jan	-5370
▁pat	-5371
▁ref	-5372
anger	-5373
ehung	-5374
elles	-5375
mmert	-5376
othek	-5377
▁dunk	-5378
fangen	-5379
▁blieb	-5380
▁fähig	-5381
▁lager	-5382
▁toile	-5383
▁vorne	-5384
▁wobei	-5385
projekt	-5386
▁besitz	-5387
▁grünen	-5388
▁herren	-5389
▁junger	-5390
▁sonder	-5391
▁stammt	-5392
▁teufel	-5393
▁verknü	-5394
▁derzeit	-5395
▁geistes	-5396
▁sequenz	-5397
▁verschl	-5398
▁zeitung	-5399
▁transpar	-5400
▁verteilt	-5401
▁angesicht	-5402
▁digitalen	-5403
▁entdeckte	-5404
▁architekten	-5405
20	-5406
oc	-5407
eut	-5408
int	-5409
ird	-5410
pha	-5411
uni	-5412
äft	-5413
akte	-5414
alog	-5415
flug	-5416
gest	-5417
hrop	-5418
igte	-5419
ston	-5420
▁gemü	-5421
▁rake	-5422
▁james	-5423
▁ledig	-5424
▁schen	-5425
▁verne	-5426
▁vögel	-5427
▁weiße	-5428
agement	-5429
▁anteil	-5430
▁grosse	-5431
▁kooper	-5432
▁mexiko	-5433
▁träume	-5434
▁wander	-5435
teleskop	-5436
▁erwähnt	-5437
▁lektion	-5438
▁michael	-5439
▁student	-5440
▁wieviel	-5441
▁beweisen	-5442
▁diagramm	-5443
▁digitale	-5444
▁schatten	-5445
▁abschluss	-5446
▁gemeinden	-5447
▁netzwerke	-5448
issenschaft	-5449
▁großmutter	-5450
▁feststellen	-5451
▁statistiken	-5452
▁medizinische	-5453
see	-5454
umb	-5455
▁hu	-5456
▁tu	-5457
eben	-5458
esie	-5459
kurr	-5460
asste	-5461
ierer	-5462
karte	-5463
▁ermu	-5464
▁koch	-5465
▁nasa	-5466
▁fälle	-5467
▁platt	-5468
▁zieht	-5469
▁blauen	-5470
▁langer	-5471
▁linien	-5472
▁nachts	-5473
▁pflanz	-5474
▁skulpt	-5475
▁tiefer	-5476
▁vieler	-5477
▁wolken	-5478
telliten	-5479
▁konflik	-5480
▁arbeiter	-5481
▁erstellt	-5482
▁gespräch	-5483
▁geschickt	-5484
▁lediglich	-5485
▁australien	-5486
▁definieren	-5487
▁unterstützt	-5488
▁faszinierend	-5489
▁persönlichen	-5490
öd	-5491
ruh	-5492
ugel	-5493
äuse	-5494
▁hem	-5495
acher	-5496
ember	-5497
linie	-5498
▁reag	-5499
riften	-5500
▁folie	-5501
▁konfr	-5502
▁süden	-5503
▁verab	-5504
fordert	-5505
ließend	-5506
▁beeind	-5507
▁enorme	-5508
▁modern	-5509
▁wikipe	-5510
zusetzen	-5511
▁absicht	-5512
▁berührt	-5513
▁kapitel	-5514
▁aufnahme	-5515
▁eingesch	-5516
▁ersetzen	-5517
▁gefallen	-5518
▁zeichnen	-5519
versorgung	-5520
▁geschlecht	-5521
▁mitarbeiter	-5522
▁persönliche	-5523
lu	-5524
bio	-5525
ozi	-5526
vir	-5527
eise	-5528
rale	-5529
▁com	-5530
tzeit	-5531
viert	-5532
▁dipl	-5533
▁hind	-5534
▁juli	-5535
▁seht	-5536
▁synt	-5537
▁teen	-5538
▁trop	-5539
fallen	-5540
▁hunde	-5541
▁toten	-5542
▁wofür	-5543
▁handel	-5544
▁galaxie	-5545
▁wirkung	-5546
▁zuhören	-5547
istischen	-5548
▁bereiche	-5549
▁lebenser	-5550
▁schlafen	-5551
▁bereichen	-5552
▁berichten	-5553
▁unabhängig	-5554
▁kompliziert	-5555
▁überraschend	-5556
hu	-5557
prä	-5558
utu	-5559
ügt	-5560
frau	-5561
nahm	-5562
ützt	-5563
▁21.	-5564
▁ann	-5565
▁leg	-5566
▁sum	-5567
ehren	-5568
mäßig	-5569
öpfen	-5570
▁isol	-5571
▁male	-5572
▁stad	-5573
ilität	-5574
üstung	-5575
▁ohren	-5576
▁sowas	-5577
gruppen	-5578
gründet	-5579
reibung	-5580
▁epidem	-5581
▁gesamt	-5582
▁größen	-5583
▁heißen	-5584
▁hinten	-5585
▁market	-5586
▁schuld	-5587
▁wetter	-5588
▁überqu	-5589
qualität	-5590
▁konkurr	-5591
▁maßstab	-5592
▁nigeria	-5593
▁wechsel	-5594
▁besuchen	-5595
▁kreieren	-5596
▁beschloss	-5597
▁gebraucht	-5598
▁produktiv	-5599
▁beinhaltet	-5600
▁jedenfalls	-5601
▁verhältnis	-5602
▁zusätzlich	-5603
▁unterhaltung	-5604
▁zivilisation	-5605
▁afrikanischen	-5606
▁veröffentlich	-5607
ati	-5608
rel	-5609
stat	-5610
▁bur	-5611
▁gig	-5612
▁top	-5613
lager	-5614
▁2008	-5615
▁farb	-5616
▁kate	-5617
▁lied	-5618
kultur	-5619
äusern	-5620
▁folgt	-5621
▁grüne	-5622
▁jewei	-5623
▁stuhl	-5624
ungsver	-5625
zentrum	-5626
▁abstra	-5627
▁ausgew	-5628
▁bauten	-5629
▁innere	-5630
▁mittag	-5631
▁tanzen	-5632
issionen	-5633
istische	-5634
▁afrikas	-5635
▁buchsta	-5636
▁italien	-5637
▁niedrig	-5638
▁mehrheit	-5639
▁versteht	-5640
▁kontinent	-5641
▁potential	-5642
▁wikipedia	-5643
▁moralische	-5644
▁schwieriger	-5645
po	-5646
kri	-5647
herr	-5648
mail	-5649
reif	-5650
▁anp	-5651
▁nad	-5652
▁sam	-5653
phone	-5654
weile	-5655
▁heiß	-5656
▁hilf	-5657
▁lich	-5658
drückt	-5659
haften	-5660
▁kreuz	-5661
schland	-5662
▁ausgel	-5663
▁grippe	-5664
▁vorder	-5665
▁winter	-5666
bevölker	-5667
▁besitzt	-5668
▁gericht	-5669
▁verring	-5670
▁existenz	-5671
▁freundin	-5672
▁erfindung	-5673
▁gesichter	-5674
▁wirkliche	-5675
▁erwachsene	-5676
▁menschlicher	-5677
da	-5678
yl	-5679
ash	-5680
eis	-5681
▁2.	-5682
▁bä	-5683
erne	-5684
ines	-5685
leib	-5686
oler	-5687
star	-5688
ward	-5689
▁600	-5690
▁ath	-5691
▁pan	-5692
▁rum	-5693
biert	-5694
sätze	-5695
wagen	-5696
▁blät	-5697
▁spir	-5698
▁thom	-5699
olitik	-5700
recher	-5701
tismus	-5702
▁gemäl	-5703
▁nötig	-5704
▁seele	-5705
▁wüste	-5706
▁zitat	-5707
itieren	-5708
▁anhand	-5709
▁bedarf	-5710
▁erlaub	-5711
▁kannte	-5712
▁tonnen	-5713
▁chirurg	-5714
▁freiwil	-5715
▁fördern	-5716
▁hierher	-5717
▁hindern	-5718
▁lächeln	-5719
▁solcher	-5720
▁entstand	-5721
▁bekannten	-5722
▁brasilien	-5723
▁gegenwart	-5724
bevölkerung	-5725
▁aufzubauen	-5726
▁darstellen	-5727
▁allgemeinen	-5728
▁beispielsweise	-5729
▁internationalen	-5730
tä	-5731
eng	-5732
▁23	-5733
▁ve	-5734
mehr	-5735
phen	-5736
▁lad	-5737
▁lar	-5738
▁okt	-5739
▁pre	-5740
▁pun	-5741
▁urs	-5742
barer	-5743
kette	-5744
preis	-5745
tritt	-5746
unken	-5747
▁brut	-5748
▁span	-5749
▁blind	-5750
▁drauf	-5751
▁feind	-5752
▁korre	-5753
▁letzt	-5754
▁manip	-5755
▁meist	-5756
▁pfund	-5757
einhalb	-5758
▁ausger	-5759
▁wellen	-5760
▁willst	-5761
▁bekomme	-5762
▁erneuer	-5763
▁gekauft	-5764
▁grossen	-5765
▁grundle	-5766
▁lokalen	-5767
▁mächtig	-5768
▁solange	-5769
▁umgeben	-5770
▁ähnliche	-5771
▁anwendung	-5772
▁widerstand	-5773
▁stammzellen	-5774
bet	-5775
own	-5776
pft	-5777
▁75	-5778
▁mr	-5779
förm	-5780
mord	-5781
nach	-5782
▁eli	-5783
▁etc	-5784
▁tur	-5785
erung	-5786
▁real	-5787
▁show	-5788
schrän	-5789
wohner	-5790
▁enorm	-5791
▁gebil	-5792
▁kabel	-5793
▁kapit	-5794
▁repar	-5795
▁schme	-5796
stoffen	-5797
▁anfing	-5798
▁diesel	-5799
▁dutzen	-5800
▁ozeane	-5801
▁singen	-5802
▁einiges	-5803
▁momente	-5804
▁veranst	-5805
▁verschm	-5806
▁verstär	-5807
losigkeit	-5808
▁anstelle	-5809
▁echtzeit	-5810
▁gesichts	-5811
▁metapher	-5812
▁positive	-5813
▁webseite	-5814
▁gegründet	-5815
▁jahrzehnt	-5816
▁transform	-5817
▁intellektu	-5818
▁speziellen	-5819
▁untersucht	-5820
▁verblüffen	-5821
▁chemikalien	-5822
▁gegenseitig	-5823
▁vorzustellen	-5824
▁interessantes	-5825
▁unglaublichen	-5826
▁schwierigkeiten	-5827
ey	-5828
ram	-5829
zipl	-5830
▁19.	-5831
▁brü	-5832
▁geg	-5833
▁sar	-5834
▁wüs	-5835
mater	-5836
zieht	-5837
ützen	-5838
▁eier	-5839
▁eink	-5840
▁elef	-5841
▁entz	-5842
▁haar	-5843
▁kamp	-5844
▁qual	-5845
▁quer	-5846
▁repu	-5847
rechte	-5848
▁bauch	-5849
▁blatt	-5850
▁hilfs	-5851
▁immun	-5852
▁kenia	-5853
▁stahl	-5854
▁stock	-5855
▁woran	-5856
▁achten	-5857
▁blumen	-5858
▁gottes	-5859
▁leiten	-5860
▁treten	-5861
ollywood	-5862
schätzen	-5863
▁quanten	-5864
▁trinken	-5865
▁äußerst	-5866
forschung	-5867
▁ausgebil	-5868
▁momentan	-5869
▁perfekte	-5870
▁verstehe	-5871
▁weiterer	-5872
▁aufnehmen	-5873
▁ernährung	-5874
▁erweitern	-5875
▁irgendwel	-5876
▁kostenlos	-5877
▁südafrika	-5878
▁gemeinsame	-5879
▁instrument	-5880
▁weltweiten	-5881
▁bedürfnisse	-5882
▁vorhersagen	-5883
ep	-5884
col	-5885
fig	-5886
läu	-5887
iein	-5888
ohnt	-5889
vard	-5890
▁anh	-5891
ancen	-5892
boden	-5893
ender	-5894
▁phot	-5895
▁spät	-5896
bilden	-5897
fernen	-5898
▁nukle	-5899
▁versp	-5900
▁voran	-5901
gegeben	-5902
▁akadem	-5903
▁befrei	-5904
▁erwart	-5905
▁gelebt	-5906
▁gewiss	-5907
▁hunger	-5908
▁meinte	-5909
▁vieles	-5910
chnungen	-5911
▁dauerte	-5912
▁müssten	-5913
▁verlust	-5914
▁anschein	-5915
▁regionen	-5916
▁sichtbar	-5917
▁entfernen	-5918
▁zusammenf	-5919
▁überrasch	-5920
▁deutschland	-5921
▁beschäftigen	-5922
ida	-5923
tal	-5924
▁rö	-5925
azin	-5926
eile	-5927
tzer	-5928
▁leh	-5929
▁ruf	-5930
denkt	-5931
plant	-5932
stero	-5933
▁anim	-5934
▁froh	-5935
▁nähr	-5936
▁seid	-5937
▁stir	-5938
karten	-5939
▁anzei	-5940
▁atmen	-5941
▁brief	-5942
▁gewöh	-5943
▁steve	-5944
▁wovon	-5945
▁anführ	-5946
▁eindeu	-5947
▁geschw	-5948
▁löcher	-5949
▁pflege	-5950
▁stücke	-5951
▁zusätz	-5952
besonder	-5953
▁100.000	-5954
▁glaubte	-5955
▁sternen	-5956
▁welchem	-5957
▁überwäl	-5958
▁bedenken	-5959
▁darunter	-5960
▁diagnost	-5961
▁leichter	-5962
▁einfaches	-5963
▁marketing	-5964
▁strategie	-5965
▁inzwischen	-5966
▁akzeptieren	-5967
▁situationen	-5968
▁bevölkerungs	-5969
▁konzentriert	-5970
▁ursprünglich	-5971
▁internationale	-5972
ago	-5973
ams	-5974
leb	-5975
mma	-5976
ühe	-5977
▁gö	-5978
spar	-5979
zenz	-5980
▁11.	-5981
▁194	-5982
▁sur	-5983
▁zeh	-5984
ckten	-5985
▁2007	-5986
▁höre	-5987
▁lebe	-5988
▁länd	-5989
▁nase	-5990
▁nett	-5991
▁weis	-5992
design	-5993
dienst	-5994
lernen	-5995
reisen	-5996
winkel	-5997
▁aspek	-5998
▁baute	-5999
▁schie	-6000
▁stern	-6001
▁youtu	-6002
▁billig	-6003
▁fabrik	-6004
▁fakten	-6005
▁führer	-6006
▁kanada	-6007
▁mangel	-6008
▁mengen	-6009
▁märkte	-6010
▁origin	-6011
▁schuhe	-6012
▁signal	-6013
▁soweit	-6014
▁tiefen	-6015
▁worauf	-6016
material	-6017
▁einzeln	-6018
▁harvard	-6019
▁konserv	-6020
besondere	-6021
verbrauch	-6022
▁folgende	-6023
▁lebendig	-6024
▁unmittel	-6025
▁betrachte	-6026
▁vermeiden	-6027
▁fasziniert	-6028
▁übernehmen	-6029
▁durchführen	-6030
▁menschliches	-6031
▁untersuchung	-6032
do	-6033
täu	-6034
mack	-6035
▁stä	-6036
euert	-6037
lesen	-6038
metho	-6039
▁bang	-6040
▁brow	-6041
▁legt	-6042
wenden	-6043
öntgen	-6044
▁fokus	-6045
▁fährt	-6046
▁noten	-6047
▁phase	-6048
▁tests	-6049
▁weihn	-6050
sprache	-6051
systems	-6052
▁austau	-6053
▁belieb	-6054
▁hinauf	-6055
▁kirche	-6056
▁thomas	-6057
▁winzig	-6058
▁erhöhen	-6059
▁konfron	-6060
▁manchen	-6061
▁mittels	-6062
▁signale	-6063
▁youtube	-6064
▁ausgeben	-6065
▁erlebnis	-6066
▁geholfen	-6067
▁wahnsinn	-6068
▁dieselben	-6069
▁literatur	-6070
▁mikroskop	-6071
▁videospie	-6072
▁prinzipien	-6073
▁religionen	-6074
▁geschlossen	-6075
▁kombination	-6076
▁insbesondere	-6077
▁präsentation	-6078
akt	-6079
ied	-6080
ift	-6081
urz	-6082
ymp	-6083
here	-6084
iche	-6085
oben	-6086
oxid	-6087
▁nar	-6088
behör	-6089
inken	-6090
menge	-6091
▁alex	-6092
▁böse	-6093
▁dumm	-6094
▁expl	-6095
▁open	-6096
bstoff	-6097
freund	-6098
nommen	-6099
tausen	-6100
▁anstr	-6101
▁direk	-6102
▁gelie	-6103
▁initi	-6104
▁räume	-6105
▁warte	-6106
▁aktion	-6107
▁falten	-6108
▁fingen	-6109
▁realen	-6110
▁rollen	-6111
▁spüren	-6112
▁zufall	-6113
▁verlang	-6114
▁zweimal	-6115
▁mikroben	-6116
▁ernsthaft	-6117
▁transport	-6118
▁beibringen	-6119
▁geburtstag	-6120
▁irgendeine	-6121
▁automatisch	-6122
▁aufgewachsen	-6123
geschwindigkeit	-6124
ics	-6125
ime	-6126
ire	-6127
ney	-6128
▁sw	-6129
ging	-6130
klär	-6131
rett	-6132
▁haw	-6133
▁hüh	-6134
▁ost	-6135
▁pla	-6136
räume	-6137
viele	-6138
weite	-6139
▁erhe	-6140
▁fürs	-6141
▁glüh	-6142
▁lieb	-6143
dollar	-6144
ichern	-6145
ischem	-6146
▁lügen	-6147
▁relev	-6148
▁sorge	-6149
prozess	-6150
wechsel	-6151
▁ausges	-6152
▁lungen	-6153
▁metall	-6154
▁stress	-6155
▁unfall	-6156
sprozess	-6157
▁aussage	-6158
▁standen	-6159
▁taschen	-6160
▁trocken	-6161
▁besseres	-6162
▁erfinder	-6163
▁proteine	-6164
oberfläche	-6165
produktion	-6166
▁tausenden	-6167
▁interessen	-6168
▁profession	-6169
▁satelliten	-6170
▁verwandelt	-6171
▁veränderte	-6172
▁wundervoll	-6173
▁überwinden	-6174
▁chinesische	-6175
▁elektrische	-6176
▁inspirieren	-6177
▁fortschritte	-6178
▁mittlerweile	-6179
zz	-6180
til	-6181
▁eu	-6182
▁wh	-6183
pern	-6184
soft	-6185
▁cir	-6186
▁mic	-6187
dreht	-6188
enter	-6189
krise	-6190
linge	-6191
▁bahn	-6192
▁biom	-6193
▁ener	-6194
▁proz	-6195
bücher	-6196
recken	-6197
ührung	-6198
▁asien	-6199
▁draht	-6200
▁erdbe	-6201
▁knapp	-6202
▁küste	-6203
▁paris	-6204
▁phant	-6205
▁rufen	-6206
▁spann	-6207
▁zwang	-6208
gedacht	-6209
▁astero	-6210
▁besagt	-6211
▁chirur	-6212
▁ergibt	-6213
▁konzep	-6214
▁option	-6215
▁pollen	-6216
▁schalt	-6217
gegangen	-6218
gelassen	-6219
▁beenden	-6220
▁enthält	-6221
▁fahrrad	-6222
▁komment	-6223
▁letzter	-6224
▁röntgen	-6225
▁schreib	-6226
▁unteren	-6227
arbeitung	-6228
▁ereignis	-6229
▁offenbar	-6230
▁pinguine	-6231
▁seltsame	-6232
▁teenager	-6233
▁transpor	-6234
▁afrikaner	-6235
▁langfrist	-6236
▁buchstaben	-6237
▁verbrechen	-6238
▁großartigen	-6239
▁fantastische	-6240
▁konsequenzen	-6241
▁verschwunden	-6242
bom	-6243
kul	-6244
pos	-6245
asie	-6246
beln	-6247
üche	-6248
▁pra	-6249
▁tja	-6250
anche	-6251
kontr	-6252
punkte	-6253
werken	-6254
▁jener	-6255
▁karik	-6256
▁stehe	-6257
▁sympt	-6258
▁trick	-6259
▁worum	-6260
▁golden	-6261
▁island	-6262
▁rezept	-6263
▁robert	-6264
pflanzen	-6265
▁anerken	-6266
▁aufgere	-6267
▁führten	-6268
▁merkwür	-6269
▁treiben	-6270
▁versamm	-6271
▁geschenk	-6272
▁schritte	-6273
▁teleskop	-6274
▁behaupten	-6275
▁betreiben	-6276
▁betrieben	-6277
▁zuschauer	-6278
▁bibliothek	-6279
▁wahrnehmen	-6280
▁gemeinsamen	-6281
▁medizinischen	-6282
▁wirtschaftliche	-6283
ele	-6284
leh	-6285
ots	-6286
pri	-6287
reu	-6288
ärm	-6289
▁22	-6290
▁27	-6291
▁zy	-6292
nütz	-6293
▁att	-6294
▁hir	-6295
gewal	-6296
hlung	-6297
küste	-6298
unruh	-6299
ünden	-6300
▁bezü	-6301
▁grie	-6302
▁kore	-6303
▁stan	-6304
▁tour	-6305
gerung	-6306
▁bestä	-6307
▁erwar	-6308
▁human	-6309
▁liber	-6310
▁micro	-6311
▁umher	-6312
problem	-6313
▁brücke	-6314
▁fläche	-6315
▁fokuss	-6316
▁beunruh	-6317
▁drücken	-6318
▁musiker	-6319
▁risiken	-6320
▁tatsäch	-6321
▁traurig	-6322
▁weshalb	-6323
▁physikal	-6324
▁schweden	-6325
▁folgenden	-6326
▁ingenieur	-6327
▁schicksal	-6328
▁university	-6329
▁wettbewerb	-6330
▁beschrieben	-6331
▁glücklicher	-6332
▁nachgedacht	-6333
▁organisieren	-6334
hö	-6335
kür	-6336
eigt	-6337
schi	-6338
▁250	-6339
▁jer	-6340
▁nir	-6341
asien	-6342
iveau	-6343
kehrt	-6344
nchen	-6345
ruckt	-6346
samen	-6347
weich	-6348
älter	-6349
▁auff	-6350
▁genü	-6351
▁hing	-6352
▁moch	-6353
▁mode	-6354
▁mosk	-6355
▁simp	-6356
▁sing	-6357
fahrer	-6358
▁bibel	-6359
▁chaos	-6360
▁günst	-6361
▁impro	-6362
▁auspro	-6363
▁bezahl	-6364
▁durchs	-6365
▁lokale	-6366
▁merken	-6367
▁neurow	-6368
zuführen	-6369
▁annahme	-6370
▁besorgt	-6371
▁gedicht	-6372
▁starben	-6373
▁zweifel	-6374
verhalten	-6375
▁anschaut	-6376
▁wechseln	-6377
▁wertvoll	-6378
▁wünschte	-6379
▁arbeitspl	-6380
▁grundlage	-6381
▁eingeladen	-6382
▁genetische	-6383
▁unterricht	-6384
▁dreidimension	-6385
▁funktionierte	-6386
hof	-6387
hrt	-6388
its	-6389
▁dh	-6390
ehrt	-6391
hrer	-6392
schü	-6393
zial	-6394
äden	-6395
▁mad	-6396
▁max	-6397
andid	-6398
drück	-6399
onent	-6400
ordin	-6401
utern	-6402
▁chic	-6403
▁kurs	-6404
▁stim	-6405
▁cyber	-6406
▁eisen	-6407
▁gefol	-6408
▁horiz	-6409
lischen	-6410
sterben	-6411
▁angeht	-6412
▁freien	-6413
▁höhere	-6414
▁kaufte	-6415
▁kriegs	-6416
▁landen	-6417
▁schild	-6418
▁senden	-6419
▁status	-6420
▁wirken	-6421
▁ansieht	-6422
▁meister	-6423
▁beachten	-6424
▁chinesen	-6425
▁resultat	-6426
▁vielmehr	-6427
▁francisco	-6428
▁gebrochen	-6429
▁geräusche	-6430
▁leistungs	-6431
▁bezeichnen	-6432
▁wenigstens	-6433
▁ausstellung	-6434
▁herstellung	-6435
▁inspiration	-6436
▁sonnenlicht	-6437
▁verbreitung	-6438
▁wirtschafts	-6439
▁hinterlassen	-6440
▁kontrolliert	-6441
▁mathematiker	-6442
▁wirtschaftsw	-6443
▁klassenzimmer	-6444
kap	-6445
▁ip	-6446
alte	-6447
denz	-6448
derm	-6449
erte	-6450
omat	-6451
▁don	-6452
▁erm	-6453
▁err	-6454
▁höl	-6455
▁tin	-6456
ahnen	-6457
üssen	-6458
▁1990	-6459
▁bund	-6460
▁mini	-6461
▁sech	-6462
▁tele	-6463
▁trug	-6464
achter	-6465
lösung	-6466
messer	-6467
stechn	-6468
▁1.000	-6469
▁front	-6470
▁treib	-6471
isieren	-6472
spiegel	-6473
▁aufbau	-6474
▁beglei	-6475
▁boston	-6476
▁center	-6477
▁faktor	-6478
▁ration	-6479
▁rennen	-6480
bekommen	-6481
▁älteren	-6482
schriften	-6483
▁kleidung	-6484
▁kongress	-6485
▁lebenden	-6486
▁versagen	-6487
▁aufgeregt	-6488
▁bezüglich	-6489
▁langsamer	-6490
▁reduziert	-6491
▁verglichen	-6492
▁entdeckungen	-6493
▁lebenserwart	-6494
▁nachhaltigkeit	-6495
30	-6496
if	-6497
abl	-6498
ota	-6499
uls	-6500
eten	-6501
fung	-6502
gelt	-6503
gert	-6504
gibt	-6505
inst	-6506
schm	-6507
▁ark	-6508
▁beh	-6509
▁cle	-6510
▁flu	-6511
▁gez	-6512
▁van	-6513
▁wid	-6514
icken	-6515
▁chip	-6516
▁jack	-6517
▁kart	-6518
▁mama	-6519
▁skla	-6520
▁stür	-6521
ammelt	-6522
eilung	-6523
gebiet	-6524
kungen	-6525
licken	-6526
▁alpha	-6527
▁armee	-6528
▁kolon	-6529
▁küche	-6530
▁peter	-6531
▁womit	-6532
ausende	-6533
chester	-6534
▁alltag	-6535
▁kriege	-6536
▁krimin	-6537
▁theore	-6538
▁unwahr	-6539
isierung	-6540
▁chancen	-6541
▁doppelt	-6542
▁erkannt	-6543
▁gebiete	-6544
▁gewählt	-6545
▁hielten	-6546
▁liefern	-6547
▁quellen	-6548
▁spenden	-6549
▁wissens	-6550
▁ägypten	-6551
icherheit	-6552
schneiden	-6553
▁bemerkte	-6554
▁hinunter	-6555
▁leuchten	-6556
▁physiker	-6557
▁schauten	-6558
▁springen	-6559
▁verliert	-6560
▁mitnehmen	-6561
▁scheitern	-6562
▁verfahren	-6563
▁erinnerung	-6564
▁gedächtnis	-6565
▁hinzufügen	-6566
▁restaurant	-6567
▁alternative	-6568
▁dargestellt	-6569
▁darstellung	-6570
▁psychologie	-6571
▁verursachen	-6572
▁voneinander	-6573
▁gerechtigkeit	-6574
▁vorstellungen	-6575
▁gemeinschaften	-6576
kw	-6577
va	-6578
don	-6579
hai	-6580
irk	-6581
▁py	-6582
▁ri	-6583
▁ts	-6584
▁ug	-6585
hyth	-6586
ison	-6587
komp	-6588
▁beu	-6589
▁cor	-6590
▁ums	-6591
gener	-6592
▁2005	-6593
▁2010	-6594
▁infe	-6595
▁kühl	-6596
▁meth	-6597
▁rock	-6598
dieren	-6599
pflanz	-6600
quelle	-6601
▁angem	-6602
▁gehei	-6603
▁kurve	-6604
▁misch	-6605
▁nahen	-6606
▁titan	-6607
▁verur	-6608
▁explos	-6609
▁gelang	-6610
▁hörten	-6611
▁kindes	-6612
▁lächer	-6613
▁marken	-6614
▁stärke	-6615
jähriger	-6616
▁ergeben	-6617
▁erhielt	-6618
▁gemälde	-6619
▁nervenz	-6620
▁streben	-6621
maschinen	-6622
▁berühren	-6623
▁exponent	-6624
▁genügend	-6625
▁nebenbei	-6626
▁vergewal	-6627
▁weisheit	-6628
▁basierend	-6629
▁darstellt	-6630
▁eindeutig	-6631
▁geschäfte	-6632
▁indischen	-6633
▁wachstums	-6634
▁wichtiges	-6635
▁arabischen	-6636
▁eingeführt	-6637
▁schwierige	-6638
▁algorithmen	-6639
▁jahrzehnten	-6640
sterblichkeit	-6641
▁innovationen	-6642
▁grundlegenden	-6643
▁nachbarschaft	-6644
▁außergewöhnlich	-6645
cin	-6646
▁ba	-6647
bern	-6648
mpft	-6649
älte	-6650
▁can	-6651
▁mau	-6652
▁1960	-6653
▁ausb	-6654
▁flor	-6655
▁hell	-6656
▁mart	-6657
▁seil	-6658
bilder	-6659
gesamt	-6660
mechan	-6661
tigten	-6662
▁angen	-6663
▁erhol	-6664
▁magie	-6665
▁olymp	-6666
▁polio	-6667
▁proje	-6668
▁säuge	-6669
▁zähne	-6670
tierung	-6671
▁gemüse	-6672
▁hängen	-6673
▁ältere	-6674
aufnahme	-6675
leistung	-6676
▁angesch	-6677
▁chicago	-6678
▁dichter	-6679
▁nutzung	-6680
▁argument	-6681
▁batterie	-6682
▁drittens	-6683
▁gebäuden	-6684
▁schlacht	-6685
▁bedrohung	-6686
▁billionen	-6687
▁computern	-6688
▁erforscht	-6689
▁scheinbar	-6690
▁teilweise	-6691
▁beschreibt	-6692
▁entfernung	-6693
▁ereignisse	-6694
▁ingenieure	-6695
▁zerstörung	-6696
▁aktivitäten	-6697
▁anscheinend	-6698
▁biologische	-6699
▁dimensionen	-6700
▁einfachheit	-6701
▁sicherheits	-6702
▁überraschung	-6703
▁gleichgewicht	-6704
ba	-6705
erv	-6706
ory	-6707
züg	-6708
comp	-6709
dach	-6710
ähen	-6711
öten	-6712
▁dör	-6713
▁kab	-6714
▁lab	-6715
▁sms	-6716
athie	-6717
brech	-6718
gespr	-6719
staat	-6720
▁budd	-6721
▁ethn	-6722
zahlen	-6723
▁blaue	-6724
▁geome	-6725
▁obama	-6726
▁teams	-6727
▁wärme	-6728
▁zehnt	-6729
haltung	-6730
▁deiner	-6731
▁erhöht	-6732
▁feiern	-6733
▁geruch	-6734
▁machst	-6735
▁medium	-6736
▁presse	-6737
▁strand	-6738
▁umfeld	-6739
▁welten	-6740
▁wohlbe	-6741
designer	-6742
ieinhalb	-6743
▁schönes	-6744
▁vermute	-6745
▁anpassen	-6746
▁begegnen	-6747
▁bekannte	-6748
▁erweiter	-6749
▁improvis	-6750
▁schreibt	-6751
▁speziell	-6752
leistungen	-6753
▁bedeutete	-6754
▁derselben	-6755
▁resultate	-6756
▁schmerzen	-6757
▁schwanger	-6758
▁umständen	-6759
▁langweilig	-6760
gesellschaft	-6761
▁genetischen	-6762
▁grundlegend	-6763
▁instrumente	-6764
▁vorbereitet	-6765
▁weiterentwick	-6766
cyc	-6767
ias	-6768
spe	-6769
tic	-6770
▁dü	-6771
▁ät	-6772
andt	-6773
burg	-6774
okol	-6775
part	-6776
stür	-6777
▁abh	-6778
▁abt	-6779
vater	-6780
▁hieß	-6781
▁myth	-6782
ikaner	-6783
isiert	-6784
stücke	-6785
▁fehlt	-6786
▁level	-6787
▁scien	-6788
▁ungeh	-6789
▁unvor	-6790
▁wirkt	-6791
fischen	-6792
sproble	-6793
örungen	-6794
▁analog	-6795
▁berück	-6796
▁höchst	-6797
▁liebte	-6798
▁planen	-6799
▁schnee	-6800
▁angriff	-6801
▁besucht	-6802
▁offenen	-6803
▁schwere	-6804
▁skelett	-6805
▁schulter	-6806
▁umfassen	-6807
▁vorteile	-6808
▁anzusehen	-6809
▁aufnahmen	-6810
▁berechnen	-6811
▁einschrän	-6812
▁enthalten	-6813
▁niemanden	-6814
▁potenzial	-6815
▁antwortete	-6816
▁besonderen	-6817
▁zusammenge	-6818
▁einzigartig	-6819
▁moralischen	-6820
▁neuigkeiten	-6821
▁verletzlich	-6822
ica	-6823
lip	-6824
▁bf	-6825
▁ky	-6826
bein	-6827
öser	-6828
▁195	-6829
▁wem	-6830
eiter	-6831
liste	-6832
telef	-6833
ttert	-6834
▁1000	-6835
▁flex	-6836
▁gelb	-6837
▁ghan	-6838
▁ruhe	-6839
▁wach	-6840
bungen	-6841
klasse	-6842
linien	-6843
▁erwär	-6844
▁hitze	-6845
ografie	-6846
▁flügel	-6847
▁global	-6848
▁studio	-6849
▁suchte	-6850
▁unterr	-6851
▁verwen	-6852
▁vorhin	-6853
▁stoppen	-6854
▁dahinter	-6855
▁demonstr	-6856
▁erdbeben	-6857
▁erfüllen	-6858
▁ernähren	-6859
▁fettleib	-6860
▁kampagne	-6861
▁mehreren	-6862
▁verfolgt	-6863
▁verschie	-6864
▁abgesehen	-6865
▁angelegen	-6866
▁komplexen	-6867
▁nationale	-6868
▁depression	-6869
▁richtungen	-6870
▁zusammenzu	-6871
▁philosophie	-6872
▁wunderbaren	-6873
▁bemerkenswert	-6874
▁lebenserwartung	-6875
▁veröffentlichen	-6876
ilen	-6877
komm	-6878
▁ast	-6879
▁imm	-6880
gangs	-6881
ünder	-6882
▁line	-6883
▁präz	-6884
lichem	-6885
reiche	-6886
▁carol	-6887
▁haiti	-6888
▁malen	-6889
▁pferd	-6890
▁prior	-6891
lektion	-6892
mitglie	-6893
▁alters	-6894
▁atomen	-6895
▁detail	-6896
▁dichte	-6897
▁enttäu	-6898
▁erneut	-6899
▁fliege	-6900
▁muskel	-6901
▁street	-6902
▁völker	-6903
▁aspekte	-6904
▁blätter	-6905
▁debatte	-6906
▁dokumen	-6907
▁general	-6908
▁gezogen	-6909
▁nannten	-6910
▁nirgend	-6911
▁spiritu	-6912
▁starken	-6913
▁anführer	-6914
▁anhalten	-6915
▁bedauern	-6916
▁krankenh	-6917
▁spektrum	-6918
▁training	-6919
▁verdient	-6920
▁visuelle	-6921
ussendlich	-6922
▁beteiligt	-6923
▁kollektiv	-6924
▁kreativen	-6925
▁symmetrie	-6926
▁weltkrieg	-6927
▁ähnliches	-6928
▁beeindruck	-6929
▁bezeichnet	-6930
▁brustkrebs	-6931
▁dunkelheit	-6932
▁kulturelle	-6933
▁ländlichen	-6934
▁übersetzen	-6935
▁anwendungen	-6936
▁eigenschaft	-6937
▁vergangenen	-6938
▁elektrischen	-6939
▁irgendwelche	-6940
▁schlussendlich	-6941
oo	-6942
aff	-6943
aku	-6944
enk	-6945
kat	-6946
van	-6947
xis	-6948
,000	-6949
back	-6950
king	-6951
▁aug	-6952
▁hüb	-6953
▁mak	-6954
▁rek	-6955
▁vag	-6956
reift	-6957
stuhl	-6958
wesen	-6959
ässer	-6960
▁eing	-6961
▁grav	-6962
▁kalt	-6963
▁skal	-6964
ausend	-6965
spanne	-6966
▁besei	-6967
▁bewer	-6968
▁brand	-6969
▁conne	-6970
▁erhöh	-6971
▁ghana	-6972
▁offiz	-6973
bewusst	-6974
mischen	-6975
▁abente	-6976
▁dienen	-6977
▁inklus	-6978
▁iphone	-6979
▁keines	-6980
▁späten	-6981
stration	-6982
▁diszipl	-6983
▁koordin	-6984
▁protein	-6985
▁schicht	-6986
▁schwein	-6987
▁weltall	-6988
▁falschen	-6989
▁genießen	-6990
▁horizont	-6991
▁riesiges	-6992
▁ursprung	-6993
▁beobachte	-6994
▁definiert	-6995
▁hoffnungs	-6996
▁infiziert	-6997
▁spezielle	-6998
▁unterwegs	-6999
▁jahrzehnte	-7000
▁teilnehmer	-7001
▁änderungen	-7002
▁videospiele	-7003
▁erinnerungen	-7004
sl	-7005
bür	-7006
car	-7007
ike	-7008
kra	-7009
tin	-7010
way	-7011
wen	-7012
vide	-7013
▁box	-7014
▁gän	-7015
▁kno	-7016
▁kuh	-7017
▁ras	-7018
eidet	-7019
eifen	-7020
schwe	-7021
tteln	-7022
▁jüng	-7023
▁nimm	-7024
▁wozu	-7025
bringt	-7026
drücke	-7027
leiten	-7028
othese	-7029
schten	-7030
ängste	-7031
▁autom	-7032
▁circa	-7033
▁desig	-7034
▁diabe	-7035
▁exakt	-7036
▁griff	-7037
▁kateg	-7038
▁leber	-7039
▁marke	-7040
▁misst	-7041
▁samen	-7042
fliegen	-7043
uchtung	-7044
▁explod	-7045
▁moskit	-7046
▁oberen	-7047
▁proben	-7048
▁schach	-7049
▁trafen	-7050
▁öffnet	-7051
schaffen	-7052
▁berühmt	-7053
▁neulich	-7054
▁paralle	-7055
▁schokol	-7056
▁systema	-7057
▁verlauf	-7058
▁wünsche	-7059
alisierte	-7060
▁ausgaben	-7061
▁besuchte	-7062
▁erwähnen	-7063
ungssystem	-7064
▁ausmachen	-7065
▁bekämpfen	-7066
▁belohnung	-7067
▁umzugehen	-7068
▁zunehmend	-7069
▁ausgesetzt	-7070
▁regierungs	-7071
▁beigebracht	-7072
▁einstellung	-7073
▁wasserstoff	-7074
▁konfrontiert	-7075
▁einrichtungen	-7076
▁interessanten	-7077
▁investitionen	-7078
▁programmieren	-7079
▁schriftsteller	-7080
bit	-7081
flü	-7082
gin	-7083
▁cm	-7084
▁hä	-7085
emin	-7086
such	-7087
tika	-7088
züge	-7089
▁fro	-7090
▁jon	-7091
▁leb	-7092
▁pin	-7093
▁por	-7094
▁vul	-7095
▁ört	-7096
atein	-7097
führt	-7098
iness	-7099
läuft	-7100
stamm	-7101
▁base	-7102
▁bord	-7103
▁bush	-7104
▁haie	-7105
▁leer	-7106
▁mamm	-7107
▁stap	-7108
▁türk	-7109
▁vorn	-7110
körper	-7111
uchtet	-7112
▁berge	-7113
▁heben	-7114
▁lasse	-7115
zwungen	-7116
▁befest	-7117
▁beides	-7118
▁bundes	-7119
▁einzus	-7120
▁heilen	-7121
▁latein	-7122
▁neigen	-7123
▁schaue	-7124
▁umwand	-7125
▁vierte	-7126
▁weisen	-7127
stimmung	-7128
▁anstieg	-7129
▁betrieb	-7130
▁dunklen	-7131
▁flächen	-7132
▁gewöhnt	-7133
▁musikal	-7134
▁wurzeln	-7135
▁zeigten	-7136
▁bewirken	-7137
▁gelassen	-7138
▁getrennt	-7139
▁problems	-7140
geschlagen	-7141
▁begreifen	-7142
▁effizienz	-7143
▁elefanten	-7144
▁insgesamt	-7145
▁letztlich	-7146
▁programme	-7147
▁versorgen	-7148
▁vorschlag	-7149
▁frankreich	-7150
▁population	-7151
▁schlechtes	-7152
▁willkommen	-7153
▁flüssigkeit	-7154
▁irgendeinem	-7155
▁präsidenten	-7156
▁technischen	-7157
▁biologischen	-7158
▁informations	-7159
▁wunderschöne	-7160
▁persönlichkeit	-7161
ats	-7162
bur	-7163
ops	-7164
pen	-7165
ppt	-7166
uth	-7167
▁26	-7168
hiop	-7169
ossi	-7170
sper	-7171
üger	-7172
ülle	-7173
▁akt	-7174
▁kün	-7175
▁sir	-7176
leute	-7177
malen	-7178
nügen	-7179
stete	-7180
▁ehre	-7181
▁rett	-7182
attung	-7183
graben	-7184
▁achse	-7185
▁higgs	-7186
▁kongo	-7187
▁könne	-7188
▁meere	-7189
▁neutr	-7190
▁rhyth	-7191
▁selbe	-7192
▁übert	-7193
schicht	-7194
▁drehte	-7195
▁handys	-7196
▁kaputt	-7197
▁kommer	-7198
▁offene	-7199
▁potent	-7200
▁tasche	-7201
▁äthiop	-7202
gefallen	-7203
▁abgesch	-7204
▁angeles	-7205
▁krieges	-7206
▁lebende	-7207
▁negativ	-7208
▁spinnen	-7209
ulationen	-7210
▁gegenwär	-7211
▁ökonomen	-7212
▁empfinden	-7213
▁geschmack	-7214
▁vergnügen	-7215
▁verrückte	-7216
▁versteckt	-7217
▁chinesischen	-7218
▁identifizieren	-7219
beg	-7220
eme	-7221
män	-7222
ony	-7223
zum	-7224
▁36	-7225
appt	-7226
fand	-7227
gewe	-7228
holz	-7229
ight	-7230
sthe	-7231
städ	-7232
urop	-7233
▁bob	-7234
▁gps	-7235
▁hai	-7236
▁jur	-7237
▁sus	-7238
▁tum	-7239
gebäu	-7240
grenz	-7241
lösen	-7242
otten	-7243
romos	-7244
▁2004	-7245
▁akte	-7246
▁dist	-7247
▁fair	-7248
▁füße	-7249
▁half	-7250
▁pazi	-7251
▁radi	-7252
▁raub	-7253
▁sorg	-7254
andern	-7255
annter	-7256
ativer	-7257
▁alltä	-7258
▁anruf	-7259
▁apple	-7260
▁auton	-7261
▁befeh	-7262
▁klick	-7263
▁linke	-7264
▁satur	-7265
▁scham	-7266
▁subst	-7267
▁tritt	-7268
▁wüten	-7269
▁zweit	-7270
fleisch	-7271
gebiete	-7272
gemacht	-7273
▁abfall	-7274
▁aussah	-7275
▁beherr	-7276
▁eingeb	-7277
▁glücks	-7278
▁metern	-7279
▁stille	-7280
computer	-7281
▁flederm	-7282
▁gesetzt	-7283
▁kameras	-7284
▁raketen	-7285
▁stärken	-7286
▁tauchen	-7287
▁zentral	-7288
▁zerstör	-7289
▁aktuelle	-7290
▁begrenzt	-7291
▁geograph	-7292
▁studiert	-7293
▁zeitraum	-7294
▁höhepunkt	-7295
gehensweise	-7296
zeichnungen	-7297
▁ausgegeben	-7298
▁entstehung	-7299
▁mitglieder	-7300
▁sichtweise	-7301
▁vorsichtig	-7302
▁komponenten	-7303
▁wundervolle	-7304
▁geschichtener	-7305
▁traditionelle	-7306
ya	-7307
za	-7308
500	-7309
ice	-7310
tit	-7311
▁kb	-7312
▁ye	-7313
aner	-7314
arma	-7315
ckel	-7316
film	-7317
pack	-7318
trau	-7319
▁120	-7320
▁erb	-7321
▁mah	-7322
▁ohr	-7323
▁tee	-7324
▁wäl	-7325
▁zig	-7326
andem	-7327
ohlen	-7328
vileg	-7329
▁adam	-7330
▁amaz	-7331
▁feed	-7332
▁harm	-7333
▁plus	-7334
▁ritu	-7335
drehen	-7336
mittag	-7337
▁bösen	-7338
▁freie	-7339
▁katze	-7340
ichtete	-7341
▁benzin	-7342
▁bildet	-7343
▁fliegt	-7344
▁frustr	-7345
▁gewann	-7346
▁instin	-7347
▁wenden	-7348
funktion	-7349
gekommen	-7350
▁auftrag	-7351
▁designs	-7352
▁erfolgs	-7353
▁symmetr	-7354
▁träumen	-7355
regierung	-7356
▁ausnahme	-7357
▁einblick	-7358
▁epidemie	-7359
▁faktoren	-7360
▁gebieten	-7361
▁gemessen	-7362
▁hinblick	-7363
▁hindurch	-7364
▁höchsten	-7365
▁jenseits	-7366
▁mitglied	-7367
▁winzigen	-7368
▁intuition	-7369
▁irgendwas	-7370
▁ungeheuer	-7371
▁berücksich	-7372
▁sogenannte	-7373
▁verwendung	-7374
▁wirklichen	-7375
▁zurückgehen	-7376
▁fotografiert	-7377
▁verschwindet	-7378
▁verschiedener	-7379
▁weltbevölkerung	-7380
ny	-7381
vo	-7382
xu	-7383
▁0,	-7384
▁28	-7385
▁65	-7386
▁vi	-7387
obel	-7388
wald	-7389
▁ank	-7390
▁ham	-7391
▁mün	-7392
▁ren	-7393
▁zen	-7394
▁ära	-7395
▁ärm	-7396
anzig	-7397
arden	-7398
auten	-7399
eihen	-7400
euern	-7401
firma	-7402
illen	-7403
knall	-7404
äufer	-7405
▁2006	-7406
▁2009	-7407
▁camp	-7408
▁frag	-7409
▁nest	-7410
▁trat	-7411
▁umso	-7412
steine	-7413
stisch	-7414
▁anspr	-7415
▁derek	-7416
▁entsp	-7417
▁frühe	-7418
▁green	-7419
▁lehre	-7420
▁ruhig	-7421
▁willi	-7422
gezogen	-7423
station	-7424
zustand	-7425
▁amazon	-7426
▁budget	-7427
▁futter	-7428
▁hassen	-7429
▁nervös	-7430
▁oxford	-7431
▁paläst	-7432
▁preise	-7433
▁reihen	-7434
▁stirbt	-7435
▁wartet	-7436
esenheit	-7437
geschäft	-7438
▁benutze	-7439
▁bericht	-7440
▁jeweils	-7441
▁kümmert	-7442
▁liefert	-7443
▁rechner	-7444
▁schwanz	-7445
▁science	-7446
▁anbieten	-7447
▁dokument	-7448
▁erfassen	-7449
▁erklärte	-7450
▁fahrzeug	-7451
▁intensiv	-7452
▁kreative	-7453
▁russland	-7454
▁speicher	-7455
▁systemen	-7456
▁vorwärts	-7457
▁abenteuer	-7458
▁denselben	-7459
▁gesammelt	-7460
▁inklusive	-7461
▁physische	-7462
▁weibliche	-7463
ischerweise	-7464
▁britischen	-7465
▁emotionale	-7466
▁investiert	-7467
▁motivation	-7468
▁physischen	-7469
▁blickwinkel	-7470
▁eigentliche	-7471
▁oberflächen	-7472
▁organisiert	-7473
▁transparenz	-7474
▁zukünftigen	-7475
▁andererseits	-7476
▁zufriedenheit	-7477
ci	-7478
pu	-7479
flu	-7480
appe	-7481
brau	-7482
fabr	-7483
leit	-7484
tien	-7485
uzin	-7486
ühen	-7487
▁191	-7488
▁fau	-7489
▁mac	-7490
alley	-7491
endes	-7492
ratet	-7493
ridge	-7494
teste	-7495
weist	-7496
▁dame	-7497
▁häss	-7498
▁juni	-7499
▁lese	-7500
▁nano	-7501
▁strö	-7502
▁ther	-7503
anlage	-7504
führer	-7505
mensch	-7506
ogramm	-7507
▁autob	-7508
▁beton	-7509
▁brill	-7510
▁einbe	-7511
▁hoher	-7512
▁invol	-7513
▁kugel	-7514
▁magne	-7515
▁onkel	-7516
▁serie	-7517
▁stieg	-7518
dlichen	-7519
standen	-7520
▁babies	-7521
▁ballon	-7522
▁clever	-7523
▁echtes	-7524
▁kredit	-7525
▁organe	-7526
▁polizi	-7527
▁umgang	-7528
▁analyse	-7529
▁ausgest	-7530
▁büchern	-7531
▁digital	-7532
▁geraten	-7533
▁lehrern	-7534
▁magazin	-7535
▁muskeln	-7536
▁regener	-7537
▁gegenden	-7538
▁gerettet	-7539
▁hundertt	-7540
▁männchen	-7541
▁schwerer	-7542
▁stanford	-7543
▁wieviele	-7544
▁berichtet	-7545
▁denkweise	-7546
▁gestartet	-7547
▁positiven	-7548
▁weihnacht	-7549
▁wiederher	-7550
▁dazwischen	-7551
▁dramatisch	-7552
▁ignorieren	-7553
▁offensicht	-7554
▁wiederholt	-7555
▁aufeinander	-7556
▁entscheidend	-7557
▁entschlossen	-7558
▁katastrophen	-7559
▁komplizierte	-7560
▁wohlbefinden	-7561
▁repräsentiert	-7562
▁globalisierung	-7563
eg	-7564
nd	-7565
bir	-7566
dat	-7567
ech	-7568
sph	-7569
eier	-7570
lant	-7571
otto	-7572
rang	-7573
roht	-7574
wort	-7575
üren	-7576
▁kla	-7577
aster	-7578
mails	-7579
orgen	-7580
▁2001	-7581
▁bier	-7582
▁grau	-7583
▁knie	-7584
▁kond	-7585
▁last	-7586
▁lärm	-7587
▁noti	-7588
▁stet	-7589
▁zwöl	-7590
findet	-7591
gelegt	-7592
izient	-7593
wellen	-7594
▁beruh	-7595
▁event	-7596
▁haare	-7597
▁käfer	-7598
▁saßen	-7599
▁talen	-7600
▁texas	-7601
▁verde	-7602
▁zivil	-7603
▁öfter	-7604
▁fließt	-7605
▁januar	-7606
▁schlug	-7607
▁sprich	-7608
▁synthe	-7609
▁diesmal	-7610
▁greifen	-7611
▁großzüg	-7612
▁pflanze	-7613
▁vorgang	-7614
▁übersch	-7615
ianischen	-7616
▁eingehen	-7617
▁privileg	-7618
▁schweine	-7619
▁auftreten	-7620
▁benutzten	-7621
▁gespräche	-7622
▁gleichung	-7623
▁microsoft	-7624
▁plattform	-7625
▁politisch	-7626
▁techniken	-7627
▁visuellen	-7628
▁zeitungen	-7629
▁gemeinnütz	-7630
▁kommerziel	-7631
▁nachhaltig	-7632
▁treibstoff	-7633
▁profitieren	-7634
▁sogenannten	-7635
▁wiederholen	-7636
▁beeindrucken	-7637
▁berechnungen	-7638
▁schauspieler	-7639
▁entscheidende	-7640
ruf	-7641
une	-7642
ammt	-7643
ival	-7644
utet	-7645
▁gib	-7646
▁kul	-7647
▁lim	-7648
ffekt	-7649
kamer	-7650
osexu	-7651
▁beur	-7652
▁gand	-7653
▁tode	-7654
geräte	-7655
gewebe	-7656
ramide	-7657
terien	-7658
▁altes	-7659
▁fossi	-7660
▁geeig	-7661
▁konst	-7662
▁legte	-7663
▁logik	-7664
▁recyc	-7665
▁rüber	-7666
▁staub	-7667
▁waffe	-7668
▁assozi	-7669
▁dialog	-7670
▁dinger	-7671
▁doppel	-7672
▁jünger	-7673
▁metaph	-7674
▁myster	-7675
▁partei	-7676
▁reflek	-7677
▁sektor	-7678
▁tolles	-7679
▁wahlen	-7680
chnitten	-7681
zukommen	-7682
▁drucker	-7683
▁geteilt	-7684
▁höchste	-7685
▁höheren	-7686
▁kontinu	-7687
▁lichter	-7688
▁schädel	-7689
▁verbrei	-7690
▁aufstieg	-7691
▁autismus	-7692
▁gegessen	-7693
▁glaubten	-7694
▁skulptur	-7695
▁symptome	-7696
▁umstände	-7697
▁vorträge	-7698
▁zugleich	-7699
zentration	-7700
▁chemische	-7701
▁nachdenkt	-7702
▁orchester	-7703
▁asteroiden	-7704
▁ausdrücken	-7705
▁ausrüstung	-7706
▁teilnehmen	-7707
▁nachhaltige	-7708
▁unterhalten	-7709
▁afrikanische	-7710
▁ausschließlich	-7711
▁nahrungsmittel	-7712
ms	-7713
tn	-7714
erk	-7715
ham	-7716
kal	-7717
rew	-7718
ses	-7719
bend	-7720
ftig	-7721
illi	-7722
mith	-7723
okra	-7724
zusp	-7725
▁cap	-7726
▁lkw	-7727
▁wut	-7728
größe	-7729
gänge	-7730
halts	-7731
umpen	-7732
▁2003	-7733
▁mist	-7734
andert	-7735
dioxid	-7736
heimer	-7737
kräfte	-7738
rieren	-7739
sitzen	-7740
skraft	-7741
▁anste	-7742
▁brach	-7743
▁dreie	-7744
▁ehren	-7745
▁garan	-7746
▁graus	-7747
▁harte	-7748
▁kämpf	-7749
▁prima	-7750
▁stärk	-7751
▁trage	-7752
▁volle	-7753
▁werbe	-7754
▁wirft	-7755
▁wände	-7756
dringen	-7757
gerufen	-7758
mittelt	-7759
staaten	-7760
tragung	-7761
▁authen	-7762
▁belast	-7763
▁ehemal	-7764
▁kandid	-7765
▁keinem	-7766
▁nahezu	-7767
▁poster	-7768
▁profit	-7769
▁respek	-7770
▁uganda	-7771
▁valley	-7772
▁wahren	-7773
▁werdet	-7774
▁bevorzu	-7775
▁fließen	-7776
▁richter	-7777
▁systems	-7778
▁aufrecht	-7779
▁ausmacht	-7780
▁bescheid	-7781
▁bewahren	-7782
▁früheren	-7783
▁gebrauch	-7784
▁original	-7785
▁schließt	-7786
▁theorien	-7787
▁hollywood	-7788
▁neugierig	-7789
▁statistik	-7790
▁abendessen	-7791
▁angesichts	-7792
▁künstliche	-7793
▁mobiltelef	-7794
▁organismus	-7795
▁standpunkt	-7796
▁versorgung	-7797
▁erwartungen	-7798
▁weitermachen	-7799
▁zurückkehren	-7800
▁universitäten	-7801
▁bemerkenswerte	-7802
▁entschuldigung	-7803
ki	-7804
üd	-7805
con	-7806
öch	-7807
▁3.	-7808
anal	-7809
fang	-7810
gefä	-7811
phys	-7812
team	-7813
ästh	-7814
▁hoh	-7815
▁oel	-7816
▁tas	-7817
ammen	-7818
heber	-7819
▁befr	-7820
▁bron	-7821
▁camb	-7822
▁gast	-7823
▁saal	-7824
▁schi	-7825
▁thun	-7826
garten	-7827
ritten	-7828
schild	-7829
▁annäh	-7830
▁ausbr	-7831
▁bewoh	-7832
▁gedul	-7833
▁geöff	-7834
▁lagen	-7835
▁leder	-7836
▁raten	-7837
▁smith	-7838
▁spont	-7839
▁wasch	-7840
▁zählt	-7841
leitung	-7842
schläge	-7843
steigen	-7844
stunden	-7845
▁bomben	-7846
▁spuren	-7847
▁stämme	-7848
gleichen	-7849
▁angehen	-7850
▁dynamik	-7851
▁entwurf	-7852
▁gefüllt	-7853
▁korrekt	-7854
▁private	-7855
▁urknall	-7856
▁ursache	-7857
▁verließ	-7858
▁würdest	-7859
▁baseball	-7860
▁benutzte	-7861
▁diabetes	-7862
▁eröffnet	-7863
▁gründete	-7864
▁sozialer	-7865
▁verliebt	-7866
▁vermögen	-7867
▁wünschen	-7868
alisierten	-7869
▁bedürfnis	-7870
▁cambridge	-7871
▁gezwungen	-7872
▁treibhaus	-7873
▁angemessen	-7874
▁elektronen	-7875
▁reaktionen	-7876
▁reparieren	-7877
▁schwestern	-7878
▁verteilung	-7879
▁analysieren	-7880
▁operationen	-7881
▁schlimmsten	-7882
▁komplizierter	-7883
fot	-7884
ost	-7885
▁	-7886
e	-7887
n	-7888
i	-7889
s	-7890
r	-7891
t	-7892
a	-7893
d	-7894
h	-7895
u	-7896
l	-7897
c	-7898
m	-7899
o	-7900
g	-7901
w	-7902
b	-7903
,	-7904
k	-7905
f	-7906
.	-7907
z	-7908
v	-7909
p	-7910
ü	-7911
ä	-7912
ö	-7913
j	-7914
;	-7915
q	-7916
&	-7917
-	-7918
ß	-7919
0	-7920
y	-7921
?	-7922
:	-7923
1	-7924
x	-7925
–	-7926
2	-7927
5	-7928
9	-7929
3	-7930
4	-7931
8	-7932
6	-7933
7	-7934
!	-7935
#	-7936
%	-7937
—	-7938
/	-7939
»	-7940
«	-7941
$	-7942
é	-7943
á	-7944
‹	-7945
›	-7946
°	-7947
⁄	-7948
+	-7949
ó	-7950
=	-7951
‟	-7952
)	-7953
‚	-7954
í	-7955
ñ	-7956
à	-7957
β	-7958
è	-7959
‒	-7960
(	-7961
@	-7962
	-7963
^	-7964
`	-7965
ç	-7966
	-7967
	-7968
	-7969
¥	-7970
­	-7971
â	-7972
ã	-7973
×	-7974
ê	-7975
*	-7976
©	-7977
®	-7978
å	-7979
ô	-7980
ø	-7981
ú	-7982
ā	-7983
\	-7984
_	-7985
£	-7986
ë	-7987
ï	-7988
ý	-7989
ō	-7990
œ	-7991
š	-7992
ӓ	-7993
你	-7994
葱	-7995
送	-7996
