<unk>	0
<s>	0
</s>	0
▁t	-0
▁th	-1
▁a	-2
▁i	-3
▁w	-4
▁the	-5
▁,	-6
▁s	-7
▁.	-8
re	-9
▁o	-10
in	-11
at	-12
nd	-13
er	-14
ou	-15
▁c	-16
▁b	-17
▁&	-18
os	-19
▁h	-20
▁m	-21
ap	-22
ing	-23
▁and	-24
en	-25
▁p	-26
on	-27
▁to	-28
▁f	-29
▁d	-30
apos	-31
an	-32
es	-33
ll	-34
▁of	-35
or	-36
▁in	-37
▁l	-38
is	-39
ed	-40
▁y	-41
it	-42
ar	-43
ot	-44
▁g	-45
▁that	-46
▁we	-47
▁n	-48
▁you	-49
om	-50
▁it	-51
as	-52
▁wh	-53
ic	-54
le	-55
ve	-56
▁e	-57
al	-58
▁is	-59
ow	-60
▁be	-61
us	-62
ut	-63
ion	-64
et	-65
▁on	-66
▁re	-67
▁this	-68
qu	-69
ct	-70
ent	-71
ver	-72
ld	-73
▁so	-74
ay	-75
▁ha	-76
all	-77
id	-78
▁st	-79
ig	-80
▁he	-81
ur	-82
ly	-83
ch	-84
quot	-85
ro	-86
ke	-87
▁for	-88
se	-89
ce	-90
▁they	-91
▁was	-92
▁an	-93
▁do	-94
im	-95
ir	-96
am	-97
▁u	-98
▁are	-99
▁go	-100
op	-101
▁k	-102
▁li	-103
st	-104
ith	-105
ally	-106
th	-107
▁what	-108
▁se	-109
▁with	-110
▁have	-111
▁ab	-112
▁but	-113
▁can	-114
▁-	-115
▁--	-116
▁r	-117
ad	-118
▁as	-119
▁sh	-120
▁?	-121
▁j	-122
out	-123
ht	-124
ation	-125
ol	-126
▁ne	-127
▁com	-128
▁wor	-129
ere	-130
very	-131
▁there	-132
▁at	-133
▁ch	-134
▁about	-135
▁me	-136
▁not	-137
ould	-138
▁all	-139
ill	-140
▁fr	-141
od	-142
ant	-143
ter	-144
il	-145
ge	-146
ul	-147
ust	-148
▁som	-149
▁ex	-150
ore	-151
▁my	-152
ra	-153
▁de	-154
▁pro	-155
ight	-156
use	-157
ers	-158
▁one	-159
▁pe	-160
▁or	-161
art	-162
▁con	-163
ear	-164
um	-165
▁peop	-166
▁people	-167
ure	-168
ck	-169
▁lo	-170
▁like	-171
ok	-172
▁bec	-173
ess	-174
est	-175
▁from	-176
▁if	-177
ate	-178
▁ma	-179
ive	-180
▁now	-181
▁kn	-182
ect	-183
ies	-184
▁v	-185
ist	-186
ity	-187
▁al	-188
ble	-189
▁te	-190
if	-191
▁just	-192
nt	-193
ind	-194
▁these	-195
▁tr	-196
▁int	-197
▁our	-198
ink	-199
▁us	-200
▁out	-201
▁know	-202
▁:	-203
▁sp	-204
▁thing	-205
ause	-206
▁see	-207
un	-208
rou	-209
▁very	-210
and	-211
▁when	-212
▁because	-213
▁think	-214
▁up	-215
▁how	-216
▁them	-217
ie	-218
▁get	-219
▁pl	-220
her	-221
ort	-222
▁who	-223
▁1	-224
ich	-225
▁some	-226
▁act	-227
▁by	-228
ain	-229
ci	-230
▁sa	-231
▁going	-232
iv	-233
▁here	-234
▁your	-235
▁don	-236
og	-237
el	-238
▁im	-239
▁year	-240
▁more	-241
▁tim	-242
▁had	-243
▁look	-244
ine	-245
▁en	-246
ost	-247
▁which	-248
▁su	-249
em	-250
▁would	-251
▁really	-252
ast	-253
▁comp	-254
our	-255
ame	-256
▁want	-257
▁were	-258
▁ta	-259
ually	-260
ose	-261
ous	-262
ment	-263
ard	-264
▁then	-265
▁work	-266
▁their	-267
▁le	-268
reat	-269
gh	-270
act	-271
▁no	-272
iz	-273
▁every	-274
▁world	-275
hing	-276
ack	-277
are	-278
▁than	-279
▁way	-280
▁co	-281
▁un	-282
▁has	-283
one	-284
▁per	-285
ab	-286
▁time	-287
ther	-288
ans	-289
▁actually	-290
▁exp	-291
app	-292
▁man	-293
▁ev	-294
ag	-295
▁qu	-296
pp	-297
▁into	-298
▁say	-299
▁will	-300
▁fe	-301
▁ag	-302
ace	-303
ide	-304
ong	-305
▁did	-306
▁well	-307
ild	-308
▁could	-309
▁pre	-310
itt	-311
▁things	-312
▁where	-313
ions	-314
▁years	-315
alk	-316
▁somet	-317
▁am	-318
▁other	-319
▁tw	-320
age	-321
ud	-322
00	-323
▁af	-324
ence	-325
▁pr	-326
▁any	-327
▁ar	-328
▁cl	-329
▁happ	-330
▁new	-331
▁right	-332
▁said	-333
nder	-334
▁she	-335
ach	-336
iff	-337
ical	-338
▁make	-339
▁diff	-340
▁been	-341
▁need	-342
▁start	-343
▁bu	-344
pt	-345
ia	-346
▁fir	-347
▁2	-348
▁two	-349
so	-350
fe	-351
▁something	-352
ree	-353
▁dis	-354
▁over	-355
own	-356
▁first	-357
▁part	-358
▁mo	-359
▁ro	-360
ry	-361
ory	-362
▁imp	-363
olog	-364
▁po	-365
▁got	-366
ip	-367
▁back	-368
ire	-369
ice	-370
▁kind	-371
ens	-372
ite	-373
ass	-374
round	-375
▁those	-376
▁call	-377
ign	-378
ittle	-379
▁little	-380
ib	-381
▁ph	-382
orm	-383
▁mu	-384
ff	-385
▁also	-386
ount	-387
▁differe	-388
ound	-389
sel	-390
ang	-391
cent	-392
▁his	-393
▁talk	-394
ater	-395
ac	-396
▁most	-397
▁lot	-398
▁much	-399
▁cont	-400
▁spe	-401
ue	-402
lo	-403
▁ac	-404
ght	-405
▁des	-406
▁id	-407
ple	-408
way	-409
▁gr	-410
▁fo	-411
▁life	-412
ber	-413
ody	-414
ves	-415
▁sy	-416
ult	-417
▁ad	-418
oss	-419
▁under	-420
▁bet	-421
▁ind	-422
ving	-423
▁good	-424
▁even	-425
▁only	-426
ome	-427
co	-428
ick	-429
▁bo	-430
▁br	-431
ated	-432
vel	-433
▁let	-434
▁take	-435
▁does	-436
ak	-437
▁day	-438
able	-439
ep	-440
▁res	-441
other	-442
▁many	-443
▁hum	-444
ade	-445
ish	-446
▁her	-447
uct	-448
ial	-449
ations	-450
int	-451
▁down	-452
▁different	-453
▁why	-454
res	-455
ict	-456
▁ide	-457
ell	-458
▁around	-459
▁show	-460
rain	-461
red	-462
rough	-463
▁put	-464
ms	-465
ase	-466
▁real	-467
ark	-468
▁comm	-469
▁through	-470
ents	-471
▁may	-472
▁;	-473
▁em	-474
urn	-475
▁tell	-476
▁sc	-477
▁inter	-478
ance	-479
day	-480
▁use	-481
▁great	-482
▁off	-483
les	-484
ange	-485
▁sm	-486
▁thou	-487
cess	-488
▁come	-489
chn	-490
▁being	-491
▁happen	-492
ible	-493
▁wr	-494
▁proble	-495
▁inc	-496
▁gen	-497
▁three	-498
ars	-499
ath	-500
▁big	-501
ric	-502
form	-503
ary	-504
▁techn	-505
ject	-506
ors	-507
▁same	-508
wn	-509
▁str	-510
▁dr	-511
xt	-512
▁try	-513
▁doing	-514
iver	-515
ful	-516
stem	-517
per	-518
ys	-519
▁count	-520
▁sur	-521
uc	-522
ning	-523
ual	-524
get	-525
▁cr	-526
▁fact	-527
king	-528
illion	-529
▁bl	-530
ically	-531
ology	-532
▁gu	-533
▁pers	-534
▁human	-535
ting	-536
▁again	-537
ile	-538
▁percent	-539
▁child	-540
▁sim	-541
ied	-542
ved	-543
ons	-544
▁after	-545
▁called	-546
body	-547
ren	-548
▁build	-549
▁app	-550
thing	-551
▁system	-552
▁find	-553
ower	-554
fore	-555
▁long	-556
▁stud	-557
be	-558
▁car	-559
ord	-560
ces	-561
self	-562
ics	-563
▁dec	-564
ious	-565
▁ear	-566
▁inv	-567
▁rem	-568
▁made	-569
▁fl	-570
▁today	-571
▁quest	-572
igh	-573
nds	-574
ian	-575
▁should	-576
▁ob	-577
ition	-578
av	-579
▁thank	-580
ating	-581
▁lear	-582
▁inst	-583
▁exper	-584
▁design	-585
erest	-586
▁own	-587
▁bel	-588
we	-589
ress	-590
ft	-591
▁sch	-592
▁bas	-593
▁import	-594
cial	-595
▁turn	-596
▁another	-597
▁him	-598
ize	-599
▁jo	-600
te	-601
▁last	-602
▁interest	-603
lic	-604
▁play	-605
▁thought	-606
▁underst	-607
000	-608
▁cour	-609
▁didn	-610
▁feel	-611
ates	-612
▁ask	-613
▁sci	-614
ty	-615
con	-616
ph	-617
▁change	-618
▁mean	-619
▁ke	-620
▁rel	-621
▁brain	-622
▁went	-623
▁end	-624
▁creat	-625
▁ins	-626
▁3	-627
ities	-628
▁its	-629
▁wom	-630
▁important	-631
▁started	-632
▁trans	-633
▁hel	-634
ub	-635
▁story	-636
,000	-637
▁idea	-638
▁before	-639
▁person	-640
▁never	-641
▁ele	-642
ail	-643
als	-644
ull	-645
▁give	-646
ool	-647
ution	-648
▁exam	-649
ise	-650
▁rep	-651
gan	-652
ough	-653
▁art	-654
▁cons	-655
▁course	-656
▁prod	-657
▁problem	-658
ope	-659
▁bit	-660
▁mon	-661
▁point	-662
▁understand	-663
▁coll	-664
▁ok	-665
▁help	-666
▁imag	-667
▁better	-668
▁found	-669
▁school	-670
kes	-671
ists	-672
▁kid	-673
▁sl	-674
▁19	-675
▁power	-676
▁next	-677
▁pat	-678
ily	-679
ix	-680
ert	-681
ular	-682
▁plan	-683
ility	-684
▁pres	-685
▁belie	-686
pe	-687
▁fam	-688
▁sort	-689
▁num	-690
▁ago	-691
▁ent	-692
▁few	-693
▁still	-694
erg	-695
▁might	-696
▁pol	-697
▁came	-698
▁high	-699
▁sol	-700
▁eng	-701
oth	-702
▁technology	-703
▁hu	-704
eric	-705
gether	-706
▁comple	-707
▁together	-708
▁each	-709
▁nat	-710
▁mod	-711
▁med	-712
▁cent	-713
▁seco	-714
▁min	-715
▁ser	-716
ense	-717
▁water	-718
ward	-719
▁four	-720
▁ext	-721
▁place	-722
aph	-723
▁10	-724
▁la	-725
ather	-726
▁question	-727
▁fin	-728
ited	-729
▁able	-730
ween	-731
▁tra	-732
▁love	-733
ave	-734
▁learn	-735
▁used	-736
old	-737
▁between	-738
iss	-739
velop	-740
▁ed	-741
atch	-742
read	-743
▁20	-744
▁mus	-745
alth	-746
ness	-747
▁too	-748
ience	-749
▁light	-750
▁small	-751
▁old	-752
▁commun	-753
ines	-754
▁op	-755
ger	-756
▁el	-757
ven	-758
▁develop	-759
ures	-760
▁doesn	-761
▁dat	-762
▁rec	-763
▁americ	-764
ized	-765
▁met	-766
▁bi	-767
▁afric	-768
▁done	-769
▁ter	-770
▁cre	-771
▁grow	-772
pl	-773
▁mom	-774
ways	-775
▁looking	-776
arch	-777
ably	-778
▁comput	-779
ific	-780
▁maybe	-781
▁read	-782
iness	-783
▁example	-784
gr	-785
▁stu	-786
▁move	-787
▁lar	-788
▁million	-789
ork	-790
cept	-791
▁cell	-792
▁whole	-793
▁children	-794
▁wo	-795
▁partic	-796
▁eff	-797
az	-798
▁5	-799
▁wanted	-800
ered	-801
oney	-802
ute	-803
▁data	-804
▁sk	-805
▁att	-806
ds	-807
▁second	-808
▁far	-809
▁univer	-810
cy	-811
▁expl	-812
selves	-813
▁beh	-814
▁project	-815
▁building	-816
▁less	-817
▁hard	-818
conom	-819
▁cap	-820
▁care	-821
oc	-822
▁five	-823
▁war	-824
▁live	-825
▁always	-826
▁pict	-827
▁econom	-828
▁bus	-829
formation	-830
▁book	-831
▁reas	-832
▁giv	-833
ative	-834
▁away	-835
▁everything	-836
ets	-837
▁ever	-838
▁poss	-839
▁gener	-840
ah	-841
▁money	-842
ural	-843
▁form	-844
▁believe	-845
▁supp	-846
▁women	-847
▁sub	-848
▁health	-849
ction	-850
▁chang	-851
▁vis	-852
▁working	-853
ug	-854
▁4	-855
▁trying	-856
gin	-857
▁cor	-858
▁kids	-859
▁inf	-860
▁food	-861
▁space	-862
▁prob	-863
ands	-864
tern	-865
cer	-866
ational	-867
▁country	-868
▁anim	-869
▁doll	-870
▁teach	-871
nect	-872
▁number	-873
▁!	-874
▁open	-875
ments	-876
wh	-877
▁fun	-878
ogr	-879
▁prot	-880
ism	-881
▁using	-882
▁red	-883
▁run	-884
▁took	-885
▁cou	-886
▁organ	-887
vers	-888
▁mark	-889
#9	-890
▁&#9	-891
▁mind	-892
▁times	-893
▁sing	-894
atter	-895
▁gre	-896
▁thinking	-897
▁acc	-898
alf	-899
▁char	-900
▁quite	-901
▁resp	-902
▁elect	-903
▁interesting	-904
aut	-905
ries	-906
▁fut	-907
▁means	-908
▁head	-909
aces	-910
▁information	-911
▁left	-912
ergy	-913
▁walk	-914
▁hand	-915
air	-916
▁frie	-917
hip	-918
ri	-919
▁dem	-920
▁create	-921
rib	-922
▁reg	-923
ne	-924
▁earth	-925
▁home	-926
▁best	-927
ital	-928
▁z	-929
▁spec	-930
▁become	-931
▁future	-932
▁probably	-933
ks	-934
ract	-935
▁glo	-936
▁lead	-937
▁energy	-938
ale	-939
▁enough	-940
ead	-941
its	-942
led	-943
▁process	-944
▁cle	-945
▁happened	-946
▁compan	-947
▁air	-948
ention	-949
▁comes	-950
▁without	-951
ouse	-952
▁bring	-953
▁getting	-954
▁cam	-955
sw	-956
gest	-957
▁intern	-958
iew	-959
ues	-960
ood	-961
ten	-962
▁sense	-963
▁month	-964
▁stuff	-965
▁africa	-966
iting	-967
ps	-968
▁set	-969
▁beaut	-970
▁begin	-971
▁sw	-972
ird	-973
▁connect	-974
vern	-975
vir	-976
▁gra	-977
ories	-978
▁conf	-979
▁grou	-980
▁half	-981
▁cur	-982
▁pub	-983
▁talking	-984
lf	-985
▁pret	-986
bal	-987
▁fu	-988
▁making	-989
ertain	-990
▁eas	-991
nce	-992
▁dollars	-993
ient	-994
ont	-995
▁else	-996
▁says	-997
▁contro	-998
▁pretty	-999
▁answ	-1000
▁govern	-1001
▁social	-1002
▁pop	-1003
▁product	-1004
▁anything	-1005
▁body	-1006
▁hist	-1007
cus	-1008
▁phot	-1009
▁col	-1010
▁room	-1011
▁dist	-1012
ever	-1013
▁200	-1014
▁sound	-1015
▁bad	-1016
man	-1017
bs	-1018
viron	-1019
▁simple	-1020
▁goes	-1021
▁wee	-1022
ner	-1023
▁pie	-1024
▁side	-1025
▁science	-1026
▁youn	-1027
▁environ	-1028
▁pass	-1029
aps	-1030
▁makes	-1031
▁sign	-1032
▁six	-1033
▁bre	-1034
▁phys	-1035
ying	-1036
▁keep	-1037
ograph	-1038
▁coming	-1039
ier	-1040
▁gl	-1041
▁top	-1042
▁acr	-1043
me	-1044
fect	-1045
▁picture	-1046
▁business	-1047
▁ty	-1048
ately	-1049
ced	-1050
▁reason	-1051
ins	-1052
uring	-1053
pr	-1054
olution	-1055
▁told	-1056
▁mid	-1057
▁val	-1058
▁add	-1059
ts	-1060
▁educ	-1061
▁yet	-1062
ices	-1063
▁across	-1064
▁hope	-1065
▁share	-1066
▁living	-1067
str	-1068
▁lives	-1069
▁scient	-1070
▁happens	-1071
ided	-1072
▁seen	-1073
ew	-1074
▁cult	-1075
▁moment	-1076
▁once	-1077
ina	-1078
▁saw	-1079
▁basically	-1080
▁imagine	-1081
▁model	-1082
der	-1083
▁mor	-1084
▁okay	-1085
ash	-1086
▁opp	-1087
▁par	-1088
▁rese	-1089
▁wonder	-1090
▁mil	-1091
ember	-1092
▁ey	-1093
▁amaz	-1094
▁matter	-1095
ince	-1096
▁city	-1097
▁prof	-1098
▁stop	-1099
▁global	-1100
▁countries	-1101
▁yes	-1102
ior	-1103
▁aut	-1104
▁det	-1105
▁soci	-1106
▁allow	-1107
ety	-1108
▁such	-1109
▁asked	-1110
▁fig	-1111
▁music	-1112
ote	-1113
io	-1114
▁ways	-1115
▁stand	-1116
▁inside	-1117
▁che	-1118
▁rob	-1119
▁family	-1120
most	-1121
▁mach	-1122
▁wa	-1123
▁ted	-1124
▁list	-1125
▁hour	-1126
▁sit	-1127
▁environment	-1128
▁face	-1129
bo	-1130
▁vide	-1131
llow	-1132
▁experience	-1133
▁days	-1134
ott	-1135
▁particular	-1136
irl	-1137
▁case	-1138
▁planet	-1139
▁problems	-1140
▁everybody	-1141
ings	-1142
▁mar	-1143
where	-1144
▁having	-1145
▁complete	-1146
ape	-1147
iter	-1148
ortun	-1149
▁ideas	-1150
▁later	-1151
ization	-1152
▁effect	-1153
▁research	-1154
no	-1155
▁lang	-1156
▁blo	-1157
▁disco	-1158
▁both	-1159
▁watch	-1160
▁incred	-1161
▁billion	-1162
▁young	-1163
▁news	-1164
▁cho	-1165
▁while	-1166
▁almost	-1167
▁single	-1168
▁nothing	-1169
▁self	-1170
ilt	-1171
▁pain	-1172
▁computer	-1173
▁contin	-1174
ught	-1175
ots	-1176
imes	-1177
▁equ	-1178
▁wrong	-1179
orn	-1180
ulation	-1181
br	-1182
▁states	-1183
▁mag	-1184
▁stre	-1185
▁looks	-1186
▁langu	-1187
▁remember	-1188
ality	-1189
▁certain	-1190
▁sure	-1191
ank	-1192
work	-1193
▁thous	-1194
▁ge	-1195
▁exc	-1196
▁def	-1197
▁dev	-1198
▁vir	-1199
arent	-1200
▁girl	-1201
▁test	-1202
▁ca	-1203
▁cost	-1204
▁loc	-1205
▁within	-1206
less	-1207
▁sou	-1208
med	-1209
▁lab	-1210
▁ref	-1211
ready	-1212
▁treat	-1213
▁guy	-1214
▁unt	-1215
▁oh	-1216
▁age	-1217
▁true	-1218
ime	-1219
itive	-1220
▁level	-1221
▁answer	-1222
▁dire	-1223
▁history	-1224
▁hear	-1225
ury	-1226
▁polit	-1227
▁beautif	-1228
▁6	-1229
▁net	-1230
▁saying	-1231
▁already	-1232
▁50	-1233
▁god	-1234
▁fore	-1235
utes	-1236
▁9	-1237
uce	-1238
▁cal	-1239
▁exact	-1240
▁suc	-1241
▁dise	-1242
▁30	-1243
ken	-1244
ants	-1245
▁rest	-1246
▁cancer	-1247
dle	-1248
▁cond	-1249
▁amazing	-1250
▁pos	-1251
▁cells	-1252
▁heart	-1253
▁men	-1254
gram	-1255
▁kill	-1256
▁di	-1257
▁leg	-1258
▁sec	-1259
aterial	-1260
ivid	-1261
▁speak	-1262
ield	-1263
na	-1264
▁15	-1265
pect	-1266
▁possible	-1267
▁video	-1268
▁nature	-1269
ivity	-1270
▁heard	-1271
▁state	-1272
lish	-1273
rop	-1274
▁large	-1275
▁looked	-1276
ling	-1277
▁fil	-1278
▁tre	-1279
uck	-1280
▁ye	-1281
▁oce	-1282
unch	-1283
▁control	-1284
▁class	-1285
▁often	-1286
▁beautiful	-1287
▁must	-1288
▁100	-1289
▁full	-1290
▁months	-1291
aper	-1292
ters	-1293
▁works	-1294
▁universe	-1295
vious	-1296
eng	-1297
ether	-1298
▁mem	-1299
▁india	-1300
land	-1301
▁isn	-1302
▁since	-1303
▁sometimes	-1304
▁public	-1305
▁pay	-1306
▁figure	-1307
▁deep	-1308
▁arch	-1309
▁material	-1310
ired	-1311
▁line	-1312
osed	-1313
side	-1314
▁market	-1315
▁ass	-1316
▁built	-1317
▁house	-1318
▁program	-1319
cle	-1320
ware	-1321
▁nor	-1322
ene	-1323
ages	-1324
nding	-1325
▁decided	-1326
▁middle	-1327
▁mother	-1328
▁7	-1329
▁aud	-1330
row	-1331
ndred	-1332
▁piece	-1333
▁words	-1334
▁united	-1335
▁someone	-1336
▁adv	-1337
imate	-1338
▁hundred	-1339
▁education	-1340
▁..	-1341
▁...	-1342
▁iss	-1343
▁group	-1344
▁myself	-1345
▁entire	-1346
ames	-1347
ases	-1348
▁ret	-1349
li	-1350
atic	-1351
▁until	-1352
ering	-1353
▁couple	-1354
▁whether	-1355
▁law	-1356
▁follow	-1357
▁dra	-1358
▁land	-1359
▁yeah	-1360
▁engine	-1361
▁experim	-1362
▁instead	-1363
ane	-1364
▁front	-1365
den	-1366
ians	-1367
▁exactly	-1368
▁individ	-1369
▁species	-1370
▁abs	-1371
▁past	-1372
▁green	-1373
▁order	-1374
to	-1375
line	-1376
▁language	-1377
▁free	-1378
▁chall	-1379
▁government	-1380
▁wind	-1381
▁quick	-1382
bers	-1383
ives	-1384
▁incre	-1385
▁night	-1386
▁completely	-1387
ucture	-1388
▁third	-1389
▁turns	-1390
▁community	-1391
▁stories	-1392
▁ste	-1393
▁everyone	-1394
▁8	-1395
▁hy	-1396
ustr	-1397
▁mic	-1398
▁though	-1399
acter	-1400
▁job	-1401
▁complex	-1402
▁mass	-1403
▁places	-1404
▁object	-1405
etic	-1406
▁rev	-1407
▁view	-1408
▁wasn	-1409
▁taking	-1410
▁ourselves	-1411
▁minutes	-1412
▁internet	-1413
▁somebody	-1414
▁individual	-1415
ined	-1416
▁train	-1417
▁itself	-1418
▁huge	-1419
up	-1420
▁cra	-1421
▁bab	-1422
▁oil	-1423
▁result	-1424
▁dep	-1425
▁kinds	-1426
omes	-1427
▁name	-1428
ats	-1429
▁math	-1430
ron	-1431
▁gets	-1432
▁word	-1433
▁close	-1434
▁became	-1435
▁av	-1436
▁animals	-1437
▁friends	-1438
▁success	-1439
▁ra	-1440
▁ant	-1441
▁america	-1442
ond	-1443
▁har	-1444
ional	-1445
▁focus	-1446
▁woman	-1447
▁sho	-1448
▁themselves	-1449
▁fly	-1450
▁behav	-1451
▁happy	-1452
▁happening	-1453
urs	-1454
▁bro	-1455
▁sun	-1456
▁along	-1457
▁rather	-1458
▁tool	-1459
▁company	-1460
cc	-1461
▁bott	-1462
▁meet	-1463
▁students	-1464
ental	-1465
ien	-1466
▁rad	-1467
ream	-1468
▁ris	-1469
▁inno	-1470
▁learned	-1471
▁step	-1472
▁china	-1473
▁study	-1474
wards	-1475
▁univers	-1476
ush	-1477
▁guys	-1478
▁invest	-1479
▁ones	-1480
▁ple	-1481
ability	-1482
sy	-1483
ibly	-1484
aster	-1485
▁break	-1486
ared	-1487
ator	-1488
▁miss	-1489
▁cir	-1490
▁won	-1491
▁ve	-1492
▁game	-1493
▁mot	-1494
▁deal	-1495
▁ocean	-1496
face	-1497
▁listen	-1498
▁hold	-1499
ential	-1500
▁clear	-1501
icult	-1502
▁knew	-1503
▁couldn	-1504
itting	-1505
ake	-1506
▁learning	-1507
▁natural	-1508
▁emp	-1509
▁meas	-1510
▁hours	-1511
▁collect	-1512
▁created	-1513
▁lots	-1514
▁team	-1515
▁gave	-1516
▁parent	-1517
▁ho	-1518
▁oper	-1519
▁disease	-1520
ogn	-1521
haps	-1522
▁var	-1523
ision	-1524
istic	-1525
▁norm	-1526
▁pred	-1527
▁opportun	-1528
▁questions	-1529
1;	-1530
3;	-1531
lud	-1532
▁&#91;	-1533
▁&#93;	-1534
▁against	-1535
▁obvious	-1536
▁perhaps	-1537
▁dig	-1538
▁black	-1539
▁liter	-1540
▁seven	-1541
▁worked	-1542
▁society	-1543
not	-1544
▁cut	-1545
ients	-1546
▁field	-1547
▁finally	-1548
▁machine	-1549
cul	-1550
ium	-1551
vation	-1552
▁super	-1553
▁recent	-1554
▁ill	-1555
astic	-1556
▁eight	-1557
▁mess	-1558
▁expect	-1559
▁explain	-1560
▁american	-1561
▁es	-1562
ctor	-1563
▁relations	-1564
▁sym	-1565
▁present	-1566
▁difficult	-1567
ples	-1568
vered	-1569
▁mill	-1570
▁terr	-1571
▁death	-1572
▁early	-1573
▁oth	-1574
▁area	-1575
ern	-1576
ature	-1577
▁neur	-1578
▁takes	-1579
olved	-1580
▁pot	-1581
ption	-1582
▁short	-1583
▁during	-1584
▁others	-1585
▁simp	-1586
▁colle	-1587
ones	-1588
▁pick	-1589
▁wonderful	-1590
▁difference	-1591
que	-1592
▁vo	-1593
▁amount	-1594
ming	-1595
▁extra	-1596
▁fall	-1597
▁non	-1598
▁fund	-1599
▁least	-1600
▁needs	-1601
▁eur	-1602
▁sens	-1603
▁moving	-1604
▁century	-1605
▁del	-1606
▁arg	-1607
▁sug	-1608
▁prov	-1609
ological	-1610
ider	-1611
▁protect	-1612
ero	-1613
▁er	-1614
▁typ	-1615
▁outside	-1616
▁bar	-1617
ident	-1618
▁beginning	-1619
▁da	-1620
▁record	-1621
▁18	-1622
▁york	-1623
▁common	-1624
▁systems	-1625
cks	-1626
▁buy	-1627
▁taken	-1628
▁chr	-1629
▁fre	-1630
ither	-1631
▁wall	-1632
▁blue	-1633
▁interact	-1634
▁thousands	-1635
gen	-1636
▁network	-1637
▁easy	-1638
ially	-1639
▁pattern	-1640
att	-1641
▁jour	-1642
▁relationship	-1643
▁12	-1644
sych	-1645
▁tem	-1646
▁fail	-1647
▁behavior	-1648
rod	-1649
ides	-1650
▁cannot	-1651
▁perfect	-1652
▁interested	-1653
▁appro	-1654
▁exist	-1655
inary	-1656
itect	-1657
▁architect	-1658
▁image	-1659
▁intell	-1660
▁trad	-1661
▁photograph	-1662
ret	-1663
▁occ	-1664
▁chem	-1665
▁psych	-1666
▁shows	-1667
ination	-1668
▁population	-1669
▁bra	-1670
verage	-1671
▁hands	-1672
ully	-1673
▁extre	-1674
▁given	-1675
▁leave	-1676
▁culture	-1677
▁40	-1678
gress	-1679
▁eyes	-1680
▁grand	-1681
▁turned	-1682
▁yourself	-1683
aring	-1684
▁changed	-1685
cious	-1686
ton	-1687
utions	-1688
▁south	-1689
▁lim	-1690
▁behind	-1691
▁cop	-1692
▁parts	-1693
itions	-1694
▁paper	-1695
▁low	-1696
▁emot	-1697
▁week	-1698
▁surpr	-1699
▁communic	-1700
▁bir	-1701
ising	-1702
olute	-1703
▁drug	-1704
▁cy	-1705
▁maj	-1706
▁support	-1707
▁absolute	-1708
ged	-1709
▁whatever	-1710
▁sud	-1711
▁reach	-1712
▁spend	-1713
▁consum	-1714
▁seeing	-1715
▁tot	-1716
▁pract	-1717
itch	-1718
▁local	-1719
▁eat	-1720
▁began	-1721
▁impro	-1722
▁instit	-1723
▁ap	-1724
year	-1725
▁dark	-1726
▁media	-1727
▁needed	-1728
▁audience	-1729
els	-1730
ump	-1731
▁rich	-1732
ased	-1733
ison	-1734
▁longer	-1735
▁ess	-1736
▁stay	-1737
▁europe	-1738
▁friend	-1739
▁powerful	-1740
gs	-1741
▁tried	-1742
▁center	-1743
▁father	-1744
ted	-1745
▁emb	-1746
▁democ	-1747
xy	-1748
▁vi	-1749
▁terms	-1750
osp	-1751
ented	-1752
▁sea	-1753
▁famil	-1754
▁major	-1755
▁squ	-1756
▁size	-1757
idence	-1758
▁vers	-1759
▁parents	-1760
▁ground	-1761
▁sent	-1762
▁surv	-1763
ipp	-1764
end	-1765
▁relig	-1766
▁simply	-1767
cl	-1768
▁gone	-1769
▁incredible	-1770
▁flo	-1771
▁serv	-1772
ony	-1773
▁resour	-1774
▁perform	-1775
▁special	-1776
ler	-1777
▁sum	-1778
▁personal	-1779
▁evolution	-1780
▁humans	-1781
▁fish	-1782
▁nice	-1783
▁orig	-1784
▁economic	-1785
▁national	-1786
rought	-1787
▁direct	-1788
ney	-1789
ouch	-1790
fully	-1791
▁feet	-1792
mer	-1793
▁conv	-1794
uction	-1795
▁25	-1796
▁structure	-1797
▁win	-1798
iving	-1799
▁ice	-1800
▁event	-1801
▁cities	-1802
▁hor	-1803
▁feed	-1804
▁dream	-1805
▁ident	-1806
▁includ	-1807
▁electric	-1808
elt	-1809
▁born	-1810
▁press	-1811
▁spent	-1812
▁civ	-1813
▁situ	-1814
▁desc	-1815
▁known	-1816
▁north	-1817
▁realized	-1818
ule	-1819
▁sil	-1820
▁cool	-1821
▁growth	-1822
▁technolog	-1823
ilar	-1824
▁obs	-1825
▁fast	-1826
▁quickly	-1827
▁opt	-1828
▁insp	-1829
▁slow	-1830
▁extreme	-1831
ru	-1832
ids	-1833
oms	-1834
uses	-1835
▁prin	-1836
▁robot	-1837
▁white	-1838
▁animal	-1839
▁mole	-1840
▁sudden	-1841
▁wouldn	-1842
▁profess	-1843
of	-1844
ivers	-1845
▁value	-1846
▁surface	-1847
▁key	-1848
▁near	-1849
▁pull	-1850
ains	-1851
▁enc	-1852
▁film	-1853
▁serious	-1854
avor	-1855
▁dna	-1856
▁access	-1857
▁prop	-1858
▁books	-1859
▁scale	-1860
ibility	-1861
ife	-1862
▁lost	-1863
ows	-1864
ument	-1865
▁dest	-1866
▁either	-1867
▁compass	-1868
▁pa	-1869
▁bill	-1870
▁poor	-1871
▁stage	-1872
▁travel	-1873
▁weeks	-1874
▁produc	-1875
▁strong	-1876
▁reality	-1877
▁companies	-1878
ex	-1879
▁sitting	-1880
▁sex	-1881
▁foot	-1882
▁indust	-1883
▁repres	-1884
cing	-1885
▁vol	-1886
▁bene	-1887
▁felt	-1888
▁mult	-1889
▁brought	-1890
▁measure	-1891
lt	-1892
▁patients	-1893
▁fear	-1894
amp	-1895
▁arm	-1896
izing	-1897
ledge	-1898
▁fire	-1899
▁hosp	-1900
▁stat	-1901
▁bottom	-1902
▁gal	-1903
▁sat	-1904
▁hot	-1905
▁fight	-1906
▁wrote	-1907
▁recogn	-1908
▁experiment	-1909
▁unf	-1910
ators	-1911
▁write	-1912
ised	-1913
▁pur	-1914
▁force	-1915
ode	-1916
▁predict	-1917
▁opportunity	-1918
lect	-1919
▁tele	-1920
▁vill	-1921
▁color	-1922
▁theory	-1923
▁feeling	-1924
iny	-1925
▁blood	-1926
▁ir	-1927
▁die	-1928
▁phil	-1929
▁ability	-1930
▁compassion	-1931
▁ur	-1932
ford	-1933
▁draw	-1934
▁economy	-1935
ral	-1936
ards	-1937
▁mal	-1938
▁mathem	-1939
▁street	-1940
▁average	-1941
hood	-1942
▁circ	-1943
▁anyone	-1944
▁camp	-1945
▁requ	-1946
▁civil	-1947
▁changes	-1948
▁respons	-1949
uth	-1950
▁medic	-1951
▁touch	-1952
▁political	-1953
▁ce	-1954
rent	-1955
▁based	-1956
▁technologies	-1957
ensive	-1958
▁numbers	-1959
ny	-1960
ored	-1961
▁similar	-1962
▁web	-1963
▁miles	-1964
▁visual	-1965
▁box	-1966
▁soft	-1967
▁seems	-1968
▁images	-1969
▁morning	-1970
▁approach	-1971
he	-1972
zy	-1973
▁dead	-1974
▁guess	-1975
▁shape	-1976
▁modern	-1977
enge	-1978
▁path	-1979
▁developed	-1980
inal	-1981
ived	-1982
▁mov	-1983
▁poll	-1984
▁growing	-1985
▁scientists	-1986
ades	-1987
imens	-1988
▁revolution	-1989
▁fac	-1990
▁depe	-1991
ustain	-1992
▁nobody	-1993
▁english	-1994
go	-1995
ills	-1996
▁starting	-1997
▁tradition	-1998
▁discovered	-1999
▁road	-2000
▁sell	-2001
cially	-2002
▁spread	-2003
acy	-2004
com	-2005
▁priv	-2006
▁patient	-2007
▁suggest	-2008
ances	-2009
▁const	-2010
entially	-2011
▁attention	-2012
▁dou	-2013
▁main	-2014
▁rock	-2015
by	-2016
apt	-2017
▁ach	-2018
ively	-2019
▁gives	-2020
▁leaders	-2021
▁running	-2022
▁60	-2023
▁ball	-2024
▁text	-2025
▁literally	-2026
aly	-2027
▁cars	-2028
▁climate	-2029
▁physical	-2030
▁absolutely	-2031
lu	-2032
▁rul	-2033
anger	-2034
▁movement	-2035
▁crit	-2036
▁giving	-2037
▁challenge	-2038
▁knowledge	-2039
▁forward	-2040
▁realize	-2041
▁recently	-2042
amed	-2043
▁telling	-2044
▁auth	-2045
▁comb	-2046
▁areas	-2047
▁affect	-2048
▁impact	-2049
▁concept	-2050
▁development	-2051
▁fur	-2052
▁sal	-2053
ified	-2054
▁anybody	-2055
ery	-2056
▁ah	-2057
▁camer	-2058
▁obviously	-2059
▁ult	-2060
▁seem	-2061
▁except	-2062
bon	-2063
▁din	-2064
▁park	-2065
▁wish	-2066
▁knows	-2067
▁compet	-2068
sh	-2069
yn	-2070
vent	-2071
▁map	-2072
▁incredibly	-2073
erm	-2074
inese	-2075
▁scre	-2076
▁playing	-2077
ik	-2078
bor	-2079
ival	-2080
▁stra	-2081
▁favor	-2082
▁industry	-2083
erence	-2084
▁worth	-2085
▁proper	-2086
▁ec	-2087
▁benef	-2088
▁polic	-2089
▁describ	-2090
▁truth	-2091
par	-2092
▁viol	-2093
aged	-2094
▁alone	-2095
▁neigh	-2096
▁chinese	-2097
▁intellig	-2098
loy	-2099
▁199	-2100
▁sour	-2101
▁issue	-2102
▁mount	-2103
▁boy	-2104
▁dan	-2105
▁risk	-2106
▁suff	-2107
▁transp	-2108
▁sustain	-2109
eter	-2110
▁avail	-2111
▁express	-2112
ned	-2113
ove	-2114
ateg	-2115
▁eye	-2116
▁showed	-2117
ging	-2118
▁university	-2119
ucle	-2120
▁baby	-2121
▁fair	-2122
▁post	-2123
▁micro	-2124
▁smart	-2125
▁please	-2126
iant	-2127
▁save	-2128
▁fundam	-2129
▁current	-2130
▁hundreds	-2131
osph	-2132
▁lay	-2133
▁girls	-2134
▁millions	-2135
ung	-2136
ried	-2137
▁died	-2138
▁prom	-2139
▁games	-2140
▁haven	-2141
asc	-2142
▁hig	-2143
▁syn	-2144
▁tools	-2145
▁aw	-2146
▁sn	-2147
▁est	-2148
▁phone	-2149
▁talked	-2150
▁understanding	-2151
▁hon	-2152
ister	-2153
▁general	-2154
▁transform	-2155
ock	-2156
ique	-2157
▁nucle	-2158
▁meaning	-2159
▁creating	-2160
ban	-2161
ency	-2162
ites	-2163
like	-2164
▁type	-2165
▁drive	-2166
▁medical	-2167
por	-2168
▁star	-2169
chan	-2170
istan	-2171
▁aren	-2172
▁soon	-2173
▁neg	-2174
▁normal	-2175
▁produce	-2176
▁developing	-2177
yond	-2178
▁imm	-2179
▁emerg	-2180
▁beyond	-2181
▁subject	-2182
▁solution	-2183
▁arr	-2184
ishing	-2185
▁bacter	-2186
▁conscious	-2187
▁innovation	-2188
iod	-2189
oph	-2190
▁fa	-2191
ences	-2192
▁espe	-2193
▁tiny	-2194
▁achie	-2195
▁stick	-2196
▁table	-2197
▁online	-2198
▁designed	-2199
▁pictures	-2200
▁happiness	-2201
▁especially	-2202
po	-2203
▁flow	-2204
▁defin	-2205
▁sever	-2206
▁voice	-2207
▁period	-2208
▁becomes	-2209
aw	-2210
ift	-2211
▁eg	-2212
▁deg	-2213
▁pen	-2214
▁sounds	-2215
▁progress	-2216
▁available	-2217
▁pu	-2218
▁dom	-2219
▁joh	-2220
▁among	-2221
▁instr	-2222
bit	-2223
eed	-2224
▁80	-2225
▁gas	-2226
▁sle	-2227
▁nine	-2228
▁rele	-2229
jo	-2230
asing	-2231
urity	-2232
▁rate	-2233
▁speed	-2234
▁towards	-2235
erv	-2236
ese	-2237
▁skin	-2238
▁reasons	-2239
▁several	-2240
▁situation	-2241
ma	-2242
▁11	-2243
▁east	-2244
▁fant	-2245
▁solar	-2246
ilities	-2247
▁office	-2248
▁evidence	-2249
▁function	-2250
▁resources	-2251
▁ast	-2252
▁hiv	-2253
▁led	-2254
▁west	-2255
▁peace	-2256
▁groups	-2257
▁writing	-2258
▁computers	-2259
arr	-2260
▁bal	-2261
ished	-2262
light	-2263
▁digital	-2264
▁eth	-2265
▁port	-2266
▁teachers	-2267
vert	-2268
▁action	-2269
▁starts	-2270
▁div	-2271
▁lea	-2272
▁rid	-2273
▁tas	-2274
▁rules	-2275
▁danger	-2276
▁notice	-2277
▁bigger	-2278
▁device	-2279
room	-2280
used	-2281
▁flu	-2282
▁carbon	-2283
▁princi	-2284
umb	-2285
lict	-2286
▁bed	-2287
▁bur	-2288
▁farm	-2289
▁sold	-2290
▁solve	-2291
▁vision	-2292
▁further	-2293
▁putting	-2294
▁changing	-2295
▁certainly	-2296
gn	-2297
▁lif	-2298
oring	-2299
▁hospital	-2300
▁character	-2301
▁everywhere	-2302
une	-2303
▁react	-2304
▁necess	-2305
unt	-2306
ously	-2307
▁clos	-2308
▁lived	-2309
▁chance	-2310
▁indeed	-2311
▁extraord	-2312
▁generation	-2313
▁goog	-2314
▁trust	-2315
ude	-2316
▁john	-2317
racy	-2318
▁adm	-2319
▁link	-2320
▁wants	-2321
▁mechan	-2322
▁search	-2323
▁schools	-2324
▁suddenly	-2325
ai	-2326
xic	-2327
▁hit	-2328
▁choice	-2329
▁examples	-2330
▁experien	-2331
ze	-2332
▁lad	-2333
▁grew	-2334
▁tend	-2335
▁convers	-2336
▁village	-2337
▁involved	-2338
▁materials	-2339
ify	-2340
▁dam	-2341
▁ready	-2342
▁anyway	-2343
▁capital	-2344
ax	-2345
ros	-2346
arily	-2347
▁clean	-2348
▁asking	-2349
▁exciting	-2350
▁basic	-2351
▁college	-2352
iar	-2353
▁vac	-2354
ips	-2355
enom	-2356
cking	-2357
▁safe	-2358
▁moral	-2359
▁moved	-2360
▁message	-2361
▁student	-2362
▁security	-2363
▁scientific	-2364
▁bud	-2365
▁breat	-2366
▁graph	-2367
▁issues	-2368
▁ep	-2369
▁son	-2370
▁cross	-2371
▁potential	-2372
abor	-2373
book	-2374
medi	-2375
rast	-2376
▁grad	-2377
▁wait	-2378
▁quality	-2379
▁discover	-2380
▁perspect	-2381
▁extremely	-2382
▁isl	-2383
usion	-2384
▁totally	-2385
▁sky	-2386
▁effic	-2387
▁journey	-2388
ief	-2389
▁tom	-2390
itten	-2391
▁brit	-2392
▁prim	-2393
▁carry	-2394
▁biggest	-2395
▁passion	-2396
▁walking	-2397
▁x	-2398
ext	-2399
icle	-2400
itary	-2401
▁capt	-2402
▁song	-2403
▁vari	-2404
▁african	-2405
uly	-2406
omet	-2407
▁report	-2408
▁google	-2409
▁positive	-2410
▁projects	-2411
▁software	-2412
▁particularly	-2413
cked	-2414
here	-2415
▁sand	-2416
▁plant	-2417
▁complic	-2418
▁showing	-2419
▁challeng	-2420
▁chemical	-2421
antly	-2422
▁cook	-2423
▁birth	-2424
▁attack	-2425
▁introd	-2426
view	-2427
▁dav	-2428
▁spir	-2429
▁encou	-2430
▁trial	-2431
▁mathemat	-2432
eth	-2433
erve	-2434
iger	-2435
▁send	-2436
▁zero	-2437
▁account	-2438
how	-2439
ring	-2440
▁onto	-2441
▁doctor	-2442
▁transl	-2443
come	-2444
▁apart	-2445
osphere	-2446
▁nuclear	-2447
ein	-2448
▁fix	-2449
▁disapp	-2450
▁luck	-2451
▁push	-2452
▁sequ	-2453
▁context	-2454
▁pan	-2455
▁door	-2456
▁fing	-2457
▁screen	-2458
▁mob	-2459
iction	-2460
▁tells	-2461
▁largest	-2462
▁medicine	-2463
ugg	-2464
apan	-2465
▁aware	-2466
▁connected	-2467
▁16	-2468
▁sam	-2469
▁virt	-2470
▁activity	-2471
▁thousand	-2472
ges	-2473
▁magn	-2474
▁mars	-2475
▁store	-2476
▁immedi	-2477
▁return	-2478
▁extraordinary	-2479
ann	-2480
ram	-2481
fort	-2482
verty	-2483
▁cris	-2484
▁heav	-2485
▁japan	-2486
▁detail	-2487
▁remark	-2488
50	-2489
▁fem	-2490
▁goal	-2491
▁mine	-2492
▁magic	-2493
▁sleep	-2494
▁calcul	-2495
▁larger	-2496
▁continu	-2497
▁consider	-2498
▁continue	-2499
▁democracy	-2500
cuss	-2501
▁los	-2502
▁bank	-2503
▁lose	-2504
▁likely	-2505
▁poverty	-2506
▁teacher	-2507
▁buildings	-2508
ground	-2509
▁appear	-2510
▁square	-2511
▁usually	-2512
▁fantastic	-2513
▁electricity	-2514
ey	-2515
oud	-2516
▁tar	-2517
▁king	-2518
estern	-2519
▁movie	-2520
▁higher	-2521
▁imposs	-2522
▁thanks	-2523
▁collabor	-2524
▁conflict	-2525
▁signific	-2526
▁international	-2527
▁dro	-2528
▁diag	-2529
▁gold	-2530
▁webs	-2531
enomen	-2532
others	-2533
▁adult	-2534
▁named	-2535
▁trees	-2536
▁plants	-2537
ops	-2538
▁fill	-2539
▁fine	-2540
isions	-2541
▁points	-2542
▁objects	-2543
▁phenomen	-2544
▁watching	-2545
▁essentially	-2546
▁mis	-2547
▁rain	-2548
▁activ	-2549
▁strange	-2550
more	-2551
▁enjo	-2552
▁meth	-2553
▁page	-2554
▁corre	-2555
▁david	-2556
▁influ	-2557
▁prison	-2558
▁threat	-2559
▁supposed	-2560
▁ang	-2561
▁burn	-2562
▁role	-2563
▁labor	-2564
▁detect	-2565
▁distrib	-2566
▁results	-2567
▁unfortun	-2568
▁eventually	-2569
▁perspective	-2570
imp	-2571
akes	-2572
ires	-2573
ners	-2574
onse	-2575
▁cat	-2576
aking	-2577
▁crazy	-2578
▁beauty	-2579
▁series	-2580
▁surger	-2581
▁himself	-2582
▁somewhere	-2583
dom	-2584
▁ban	-2585
▁swe	-2586
▁mist	-2587
▁cause	-2588
▁ended	-2589
▁separ	-2590
▁temper	-2591
▁biology	-2592
▁represent	-2593
▁complicated	-2594
▁traditional	-2595
rep	-2596
▁90	-2597
▁198	-2598
▁deb	-2599
▁fort	-2600
▁sorts	-2601
▁infect	-2602
▁impossible	-2603
▁organization	-2604
inct	-2605
ctors	-2606
▁clim	-2607
▁coun	-2608
▁above	-2609
▁glass	-2610
▁meant	-2611
▁killed	-2612
▁response	-2613
uit	-2614
▁conc	-2615
▁repl	-2616
▁town	-2617
▁wife	-2618
▁wild	-2619
▁minds	-2620
▁author	-2621
▁improve	-2622
▁conditions	-2623
▁architecture	-2624
mend	-2625
▁ann	-2626
▁oxy	-2627
▁sad	-2628
▁jobs	-2629
▁pack	-2630
▁neighbor	-2631
▁particip	-2632
ef	-2633
▁/	-2634
met	-2635
▁14	-2636
ales	-2637
sect	-2638
▁bou	-2639
odies	-2640
▁rece	-2641
▁site	-2642
▁older	-2643
▁allowed	-2644
▁version	-2645
▁creative	-2646
▁products	-2647
isms	-2648
▁bom	-2649
▁clin	-2650
▁code	-2651
▁blind	-2652
▁print	-2653
▁christ	-2654
▁forest	-2655
▁written	-2656
▁bacteria	-2657
ims	-2658
idge	-2659
▁dad	-2660
▁mir	-2661
▁san	-2662
▁sor	-2663
▁muse	-2664
▁upon	-2665
▁assum	-2666
▁forms	-2667
▁stars	-2668
▁waste	-2669
▁brains	-2670
▁secret	-2671
▁central	-2672
▁western	-2673
▁favorite	-2674
▁military	-2675
▁fundamental	-2676
▁individuals	-2677
ror	-2678
▁70	-2679
nces	-2680
▁ben	-2681
atory	-2682
▁camera	-2683
▁constr	-2684
▁minute	-2685
▁policy	-2686
▁expensive	-2687
aur	-2688
fer	-2689
ube	-2690
emic	-2691
▁whe	-2692
▁kept	-2693
▁rand	-2694
▁tree	-2695
▁truly	-2696
▁excited	-2697
▁somehow	-2698
▁treatment	-2699
▁successful	-2700
cient	-2701
▁genes	-2702
▁spect	-2703
▁finding	-2704
▁mention	-2705
sc	-2706
ped	-2707
▁17	-2708
oming	-2709
ulate	-2710
▁cart	-2711
▁alive	-2712
▁drugs	-2713
▁molec	-2714
▁neurons	-2715
do	-2716
▁—	-2717
lier	-2718
▁ger	-2719
▁purp	-2720
▁enorm	-2721
▁shown	-2722
▁worse	-2723
▁launch	-2724
▁models	-2725
▁taught	-2726
men	-2727
rage	-2728
inated	-2729
▁lands	-2730
▁crisis	-2731
▁faster	-2732
▁museum	-2733
ster	-2734
▁sus	-2735
▁source	-2736
▁explore	-2737
▁position	-2738
▁straight	-2739
▁hey	-2740
▁late	-2741
▁beings	-2742
▁region	-2743
▁plastic	-2744
cape	-2745
▁fle	-2746
▁hom	-2747
▁hop	-2748
▁pal	-2749
ining	-2750
▁card	-2751
▁fasc	-2752
▁therefore	-2753
lly	-2754
cise	-2755
▁jud	-2756
▁cele	-2757
▁trou	-2758
▁freed	-2759
▁liber	-2760
▁throw	-2761
▁physics	-2762
▁reading	-2763
▁training	-2764
ama	-2765
put	-2766
ulf	-2767
▁hero	-2768
▁accept	-2769
▁forget	-2770
▁pieces	-2771
amm	-2772
▁od	-2773
▁tur	-2774
phone	-2775
vision	-2776
▁bunch	-2777
▁celebr	-2778
▁choose	-2779
▁daught	-2780
▁discuss	-2781
▁strateg	-2782
▁including	-2783
nal	-2784
soci	-2785
▁dog	-2786
▁kil	-2787
▁afgh	-2788
▁rise	-2789
▁electr	-2790
▁famous	-2791
▁respect	-2792
ressed	-2793
▁trick	-2794
▁afford	-2795
▁communities	-2796
ike	-2797
amic	-2798
oles	-2799
▁yell	-2800
▁costs	-2801
▁price	-2802
▁worry	-2803
▁weight	-2804
▁clearly	-2805
▁earlier	-2806
▁however	-2807
▁familiar	-2808
▁families	-2809
▁dangerous	-2810
▁throughout	-2811
iet	-2812
oke	-2813
▁tv	-2814
ches	-2815
tend	-2816
▁cold	-2817
▁legs	-2818
▁finan	-2819
▁determ	-2820
▁slight	-2821
▁smaller	-2822
▁cit	-2823
▁tit	-2824
istics	-2825
ression	-2826
▁concer	-2827
▁seconds	-2828
▁studies	-2829
▁invented	-2830
oon	-2831
son	-2832
apes	-2833
thern	-2834
▁hall	-2835
▁roll	-2836
▁optim	-2837
▁afghan	-2838
izations	-2839
▁achieve	-2840
▁colleag	-2841
▁service	-2842
▁painting	-2843
▁standing	-2844
▁increasing	-2845
ffic	-2846
▁dar	-2847
▁doc	-2848
epend	-2849
▁cover	-2850
▁lower	-2851
▁occur	-2852
▁content	-2853
▁genetic	-2854
▁publish	-2855
▁thr	-2856
ables	-2857
▁increase	-2858
▁americans	-2859
▁13	-2860
▁alth	-2861
ologists	-2862
▁although	-2863
▁solutions	-2864
▁environmental	-2865
rees	-2866
▁log	-2867
▁hell	-2868
▁lines	-2869
▁urban	-2870
inating	-2871
▁actual	-2872
▁invent	-2873
▁remind	-2874
▁greater	-2875
▁machines	-2876
▁unfortunately	-2877
ob	-2878
zz	-2879
ana	-2880
bol	-2881
iti	-2882
▁dyn	-2883
▁rule	-2884
ission	-2885
▁contrib	-2886
▁listening	-2887
▁production	-2888
egr	-2889
back	-2890
▁shot	-2891
▁uses	-2892
▁virus	-2893
ustrial	-2894
▁allows	-2895
▁associ	-2896
▁robots	-2897
▁spirit	-2898
▁recognize	-2899
▁surprising	-2900
ray	-2901
▁et	-2902
fact	-2903
iles	-2904
onom	-2905
▁den	-2906
▁lau	-2907
▁ran	-2908
▁rap	-2909
ounds	-2910
▁talks	-2911
ologist	-2912
▁skills	-2913
▁unique	-2914
▁walked	-2915
▁immediately	-2916
let	-2917
▁aid	-2918
▁mut	-2919
▁pig	-2920
onstr	-2921
▁bang	-2922
▁fold	-2923
▁none	-2924
▁board	-2925
▁slide	-2926
▁employ	-2927
▁philos	-2928
▁rights	-2929
▁waiting	-2930
▁direction	-2931
sequ	-2932
▁alg	-2933
▁atm	-2934
acity	-2935
▁citiz	-2936
▁trade	-2937
▁effort	-2938
▁driving	-2939
▁conversation	-2940
for	-2941
▁hur	-2942
▁ken	-2943
▁veh	-2944
▁cases	-2945
▁innov	-2946
▁sorry	-2947
▁income	-2948
▁anymore	-2949
▁website	-2950
wood	-2951
▁anal	-2952
▁gene	-2953
▁ther	-2954
uments	-2955
▁broad	-2956
▁manage	-2957
▁saving	-2958
▁useful	-2959
▁surgery	-2960
▁patterns	-2961
▁intelligence	-2962
uced	-2963
▁tum	-2964
eties	-2965
itude	-2966
▁prep	-2967
▁tiss	-2968
▁enjoy	-2969
▁mental	-2970
atically	-2971
▁freedom	-2972
iven	-2973
▁tun	-2974
▁desp	-2975
▁autom	-2976
▁dance	-2977
▁greatest	-2978
▁decisions	-2979
▁21	-2980
cies	-2981
resh	-2982
ript	-2983
▁lat	-2984
iversity	-2985
▁private	-2986
▁president	-2987
cr	-2988
rene	-2989
▁ara	-2990
▁ord	-2991
ained	-2992
▁survive	-2993
▁humanity	-2994
oty	-2995
▁196	-2996
▁cry	-2997
▁ine	-2998
▁fuel	-2999
itation	-3000
▁babies	-3001
anda	-3002
iced	-3003
play	-3004
▁ten	-3005
▁ver	-3006
eless	-3007
ently	-3008
rastr	-3009
▁term	-3010
▁wood	-3011
▁catch	-3012
▁check	-3013
▁drink	-3014
▁range	-3015
▁shark	-3016
▁weren	-3017
▁artist	-3018
▁nation	-3019
▁provide	-3020
mb	-3021
oid	-3022
▁ut	-3023
uted	-3024
▁exh	-3025
▁tal	-3026
aging	-3027
iling	-3028
▁vict	-3029
▁final	-3030
▁depend	-3031
▁multip	-3032
▁healthy	-3033
▁anywhere	-3034
▁infrastr	-3035
▁specific	-3036
▁interview	-3037
▁connection	-3038
▁remarkable	-3039
▁je	-3040
▁tor	-3041
▁insect	-3042
▁mostly	-3043
▁struct	-3044
▁values	-3045
▁electron	-3046
▁enormous	-3047
antic	-3048
▁jump	-3049
ricult	-3050
▁commer	-3051
▁dimens	-3052
▁flying	-3053
▁massive	-3054
▁agricult	-3055
▁critical	-3056
▁religion	-3057
▁conference	-3058
▁television	-3059
unk	-3060
attle	-3061
▁quant	-3062
▁raise	-3063
▁doctors	-3064
▁teaching	-3065
orrow	-3066
▁copy	-3067
▁loved	-3068
imately	-3069
▁various	-3070
▁decision	-3071
▁demonstr	-3072
▁relative	-3073
▁creativity	-3074
▁hyd	-3075
▁hole	-3076
▁moon	-3077
▁weap	-3078
▁floor	-3079
▁match	-3080
▁bodies	-3081
▁random	-3082
▁address	-3083
▁becoming	-3084
▁industrial	-3085
bb	-3086
the	-3087
▁base	-3088
▁desert	-3089
▁practice	-3090
ndon	-3091
time	-3092
▁blog	-3093
▁heat	-3094
▁indian	-3095
▁comfort	-3096
▁evolved	-3097
▁willing	-3098
▁independ	-3099
▁violence	-3100
uss	-3101
▁mr	-3102
▁500	-3103
▁hair	-3104
▁radio	-3105
▁twice	-3106
▁micros	-3107
▁wealth	-3108
▁politics	-3109
▁condition	-3110
▁transport	-3111
▁understood	-3112
▁performance	-3113
iqu	-3114
yle	-3115
ured	-3116
vere	-3117
board	-3118
▁funny	-3119
▁types	-3120
▁forces	-3121
▁physic	-3122
▁prevent	-3123
▁cultural	-3124
▁profound	-3125
▁services	-3126
▁temperature	-3127
ffe	-3128
aries	-3129
▁crow	-3130
▁laws	-3131
▁swim	-3132
▁motiv	-3133
▁integr	-3134
▁island	-3135
▁strugg	-3136
aign	-3137
wise	-3138
▁nut	-3139
iation	-3140
▁frank	-3141
reprene	-3142
▁compon	-3143
▁terror	-3144
▁consequ	-3145
▁purpose	-3146
▁slightly	-3147
▁institutions	-3148
▁consciousness	-3149
ee	-3150
bel	-3151
ball	-3152
▁300	-3153
▁drop	-3154
▁wire	-3155
▁airpl	-3156
▁rough	-3157
▁decade	-3158
▁destro	-3159
▁eating	-3160
▁genome	-3161
▁method	-3162
▁campaign	-3163
▁possibly	-3164
ancy	-3165
▁197	-3166
▁ign	-3167
▁aids	-3168
▁causes	-3169
▁german	-3170
▁helped	-3171
▁histor	-3172
▁metaph	-3173
▁yellow	-3174
▁instance	-3175
cope	-3176
▁ira	-3177
▁hous	-3178
▁scan	-3179
▁ahead	-3180
▁chris	-3181
▁dinos	-3182
▁smell	-3183
▁oxygen	-3184
▁shared	-3185
▁tremend	-3186
▁capacity	-3187
▁networks	-3188
▁financial	-3189
▁afghanistan	-3190
▁experiments	-3191
▁infrastructure	-3192
▁harv	-3193
▁birds	-3194
▁engage	-3195
▁symbol	-3196
▁meeting	-3197
▁washing	-3198
▁designers	-3199
▁societies	-3200
▁entreprene	-3201
bert	-3202
outh	-3203
▁mix	-3204
▁trib	-3205
▁bought	-3206
▁breast	-3207
▁supply	-3208
▁degrees	-3209
▁journal	-3210
▁directly	-3211
ec	-3212
win	-3213
▁24	-3214
thes	-3215
▁fat	-3216
▁gent	-3217
▁below	-3218
▁oppos	-3219
▁parad	-3220
▁london	-3221
▁ancient	-3222
▁popular	-3223
▁controll	-3224
▁terrible	-3225
▁effective	-3226
▁following	-3227
cell	-3228
water	-3229
▁appl	-3230
▁cust	-3231
▁austr	-3232
▁coast	-3233
▁target	-3234
▁atmosphere	-3235
▁complexity	-3236
▁201	-3237
▁fit	-3238
▁mad	-3239
aling	-3240
cules	-3241
▁mich	-3242
▁career	-3243
▁flight	-3244
▁police	-3245
▁produced	-3246
▁speaking	-3247
▁communication	-3248
fl	-3249
rew	-3250
▁etc	-3251
▁mos	-3252
▁mamm	-3253
▁apply	-3254
▁chair	-3255
▁track	-3256
▁active	-3257
▁played	-3258
▁switch	-3259
▁trouble	-3260
▁daughter	-3261
▁governments	-3262
iest	-3263
right	-3264
▁vacc	-3265
atives	-3266
▁gradu	-3267
▁levels	-3268
▁markets	-3269
▁significant	-3270
ils	-3271
▁hus	-3272
▁ske	-3273
ening	-3274
▁iran	-3275
▁iraq	-3276
▁pros	-3277
▁task	-3278
▁tens	-3279
▁whose	-3280
▁summer	-3281
▁artists	-3282
▁mission	-3283
▁diseases	-3284
▁standard	-3285
▁emotional	-3286
▁quot	-3287
▁climb	-3288
▁forth	-3289
▁closer	-3290
▁honest	-3291
▁engineering	-3292
anc	-3293
osy	-3294
rael	-3295
▁hid	-3296
rench	-3297
▁boys	-3298
▁mort	-3299
▁rare	-3300
▁photo	-3301
ception	-3302
▁applic	-3303
▁gentle	-3304
▁mobile	-3305
▁creates	-3306
▁pressure	-3307
▁scientist	-3308
▁foundation	-3309
▁differences	-3310
ami	-3311
pro	-3312
ceed	-3313
oper	-3314
orge	-3315
inate	-3316
▁laugh	-3317
▁memory	-3318
▁focused	-3319
▁reflect	-3320
▁surround	-3321
▁molecules	-3322
▁challenges	-3323
ping	-3324
iforn	-3325
▁arab	-3326
▁doub	-3327
ashion	-3328
ration	-3329
▁coffe	-3330
▁river	-3331
▁surve	-3332
▁total	-3333
▁effects	-3334
▁californ	-3335
▁inspired	-3336
▁biological	-3337
ky	-3338
ya	-3339
▁$	-3340
ams	-3341
ios	-3342
itor	-3343
▁vul	-3344
▁band	-3345
▁beat	-3346
▁dram	-3347
▁trip	-3348
▁belief	-3349
▁expand	-3350
▁highly	-3351
▁inspir	-3352
▁neighborhood	-3353
▁gh	-3354
iber	-3355
load	-3356
▁rot	-3357
▁wis	-3358
itted	-3359
▁reco	-3360
▁seas	-3361
▁shop	-3362
▁agree	-3363
▁brill	-3364
▁niger	-3365
▁worst	-3366
▁democr	-3367
▁devices	-3368
▁mountain	-3369
▁original	-3370
▁particles	-3371
izes	-3372
▁rom	-3373
ufact	-3374
▁gard	-3375
▁paid	-3376
▁offic	-3377
▁10,000	-3378
▁seemed	-3379
ervation	-3380
▁workers	-3381
▁spending	-3382
ada	-3383
ley	-3384
ened	-3385
▁summ	-3386
▁coffee	-3387
▁lights	-3388
▁window	-3389
▁california	-3390
▁colleagues	-3391
▁commercial	-3392
▁sustainable	-3393
key	-3394
aced	-3395
othes	-3396
▁plat	-3397
▁wide	-3398
▁diagn	-3399
▁frame	-3400
▁magaz	-3401
▁mouth	-3402
▁pleas	-3403
▁easily	-3404
▁israel	-3405
▁answers	-3406
▁decades	-3407
▁hearing	-3408
▁noticed	-3409
▁studying	-3410
empt	-3411
▁que	-3412
▁loss	-3413
▁scul	-3414
thetic	-3415
▁newsp	-3416
▁broken	-3417
▁decide	-3418
▁vulner	-3419
▁sharing	-3420
▁manufact	-3421
▁philosoph	-3422
aff	-3423
band	-3424
iers	-3425
▁fro	-3426
▁gar	-3427
▁pet	-3428
istry	-3429
itely	-3430
▁hang	-3431
▁poet	-3432
▁tast	-3433
▁chick	-3434
▁novel	-3435
▁shoot	-3436
▁choices	-3437
▁stopped	-3438
▁phenomenon	-3439
olve	-3440
rupt	-3441
arian	-3442
icles	-3443
orith	-3444
▁bread	-3445
osystem	-3446
▁corner	-3447
▁custom	-3448
▁algorith	-3449
▁communicate	-3450
osh	-3451
val	-3452
iped	-3453
▁gun	-3454
ement	-3455
ulous	-3456
▁iron	-3457
▁email	-3458
▁visit	-3459
▁accord	-3460
▁charge	-3461
▁volunt	-3462
▁knowing	-3463
▁argument	-3464
▁citizens	-3465
▁ecosystem	-3466
▁published	-3467
▁tremendous	-3468
▁responsibility	-3469
eg	-3470
anced	-3471
order	-3472
▁stem	-3473
▁block	-3474
▁feels	-3475
▁noise	-3476
▁party	-3477
▁richard	-3478
▁metaphor	-3479
rel	-3480
tle	-3481
pped	-3482
▁400	-3483
▁lin	-3484
▁tax	-3485
▁lack	-3486
▁paul	-3487
▁sick	-3488
▁teen	-3489
▁cheap	-3490
▁leads	-3491
▁lucky	-3492
▁cooper	-3493
▁sculpt	-3494
▁tissue	-3495
▁unlike	-3496
▁austral	-3497
▁correct	-3498
▁farmers	-3499
▁partners	-3500
▁necessarily	-3501
ays	-3502
▁basis	-3503
▁mexic	-3504
▁double	-3505
▁helping	-3506
▁programs	-3507
kn	-3508
off	-3509
cest	-3510
term	-3511
▁reb	-3512
apped	-3513
▁peng	-3514
aining	-3515
▁dying	-3516
▁fully	-3517
▁tough	-3518
▁french	-3519
▁microb	-3520
▁nearly	-3521
▁resist	-3522
ographic	-3523
▁missing	-3524
▁efficient	-3525
▁structures	-3526
▁relationships	-3527
▁rh	-3528
ores	-3529
▁unc	-3530
arter	-3531
▁motor	-3532
▁pengu	-3533
▁altern	-3534
▁ancest	-3535
▁brings	-3536
▁gotten	-3537
▁conduct	-3538
▁related	-3539
▁bringing	-3540
▁brilliant	-3541
ius	-3542
aria	-3543
▁amb	-3544
▁joy	-3545
▁nan	-3546
▁adapt	-3547
▁fairly	-3548
▁symmet	-3549
▁contact	-3550
▁element	-3551
▁elements	-3552
ued	-3553
otic	-3554
▁cla	-3555
▁mit	-3556
▁scr	-3557
▁join	-3558
▁giant	-3559
▁reduce	-3560
▁spaces	-3561
▁deliver	-3562
▁emotion	-3563
▁moments	-3564
ification	-3565
▁designer	-3566
▁diversity	-3567
▁differently	-3568
▁imagination	-3569
▁zo	-3570
ises	-3571
▁hyp	-3572
▁mas	-3573
house	-3574
verse	-3575
▁puzz	-3576
▁spee	-3577
▁fashion	-3578
▁figured	-3579
▁addition	-3580
▁benefits	-3581
▁possibility	-3582
▁opportunities	-3583
▁organizations	-3584
arm	-3585
und	-3586
mark	-3587
vity	-3588
▁fab	-3589
▁inj	-3590
based	-3591
▁asia	-3592
▁harm	-3593
dimens	-3594
▁accom	-3595
▁analy	-3596
▁fresh	-3597
▁bright	-3598
▁attract	-3599
▁foreign	-3600
▁planets	-3601
▁landscape	-3602
▁organisms	-3603
▁professor	-3604
▁religious	-3605
▁suffering	-3606
vit	-3607
▁1.	-3608
raid	-3609
ties	-3610
▁dol	-3611
▁acad	-3612
▁cand	-3613
▁lapt	-3614
▁libr	-3615
▁1,000	-3616
▁enter	-3617
▁prize	-3618
▁weird	-3619
▁afraid	-3620
▁aspect	-3621
▁balance	-3622
▁members	-3623
▁streets	-3624
▁typical	-3625
▁creatures	-3626
▁competition	-3627
ees	-3628
▁cru	-3629
▁jew	-3630
eared	-3631
▁gall	-3632
▁race	-3633
▁tour	-3634
ography	-3635
▁female	-3636
▁finger	-3637
▁grandm	-3638
▁passed	-3639
▁display	-3640
▁forever	-3641
▁respond	-3642
▁engineers	-3643
▁ju	-3644
▁ug	-3645
aped	-3646
▁cro	-3647
▁org	-3648
oking	-3649
▁forg	-3650
▁meat	-3651
apping	-3652
▁crash	-3653
▁mouse	-3654
▁budget	-3655
▁demand	-3656
▁dollar	-3657
▁british	-3658
▁restaur	-3659
▁negative	-3660
▁intellect	-3661
fr	-3662
▁ax	-3663
reci	-3664
▁150	-3665
▁ble	-3666
▁mur	-3667
celer	-3668
iable	-3669
itter	-3670
stein	-3671
▁prou	-3672
▁russ	-3673
antage	-3674
▁chann	-3675
▁offer	-3676
▁paint	-3677
connect	-3678
lection	-3679
▁bridge	-3680
▁lesson	-3681
▁notion	-3682
▁slowly	-3683
▁according	-3684
dimensional	-3685
▁mathematics	-3686
ett	-3687
irt	-3688
zil	-3689
▁alt	-3690
▁fol	-3691
▁cogn	-3692
▁narr	-3693
▁shel	-3694
▁brand	-3695
▁cloud	-3696
▁faces	-3697
▁surge	-3698
▁begins	-3699
▁consid	-3700
▁despite	-3701
▁insects	-3702
▁install	-3703
▁matters	-3704
wor	-3705
hand	-3706
▁bon	-3707
▁tow	-3708
print	-3709
rogen	-3710
▁host	-3711
▁helps	-3712
▁prior	-3713
▁brazil	-3714
▁colors	-3715
▁events	-3716
▁fortun	-3717
▁concent	-3718
▁counter	-3719
▁turning	-3720
▁billions	-3721
▁describe	-3722
▁otherwise	-3723
▁perfectly	-3724
▁background	-3725
▁experiences	-3726
uary	-3727
▁fed	-3728
▁shr	-3729
▁wow	-3730
▁reve	-3731
▁vast	-3732
▁walls	-3733
▁easier	-3734
▁meters	-3735
▁brother	-3736
▁nations	-3737
▁traffic	-3738
▁entirely	-3739
▁facebook	-3740
▁definition	-3741
ha	-3742
lim	-3743
ypt	-3744
▁drag	-3745
▁epid	-3746
▁male	-3747
ulated	-3748
▁calls	-3749
▁invis	-3750
▁maint	-3751
▁shift	-3752
▁batter	-3753
▁circle	-3754
▁fourth	-3755
▁photos	-3756
▁sector	-3757
▁sister	-3758
▁attempt	-3759
▁destroy	-3760
▁emotions	-3761
▁normally	-3762
▁ultimately	-3763
head	-3764
▁row	-3765
▁spl	-3766
▁boat	-3767
▁chur	-3768
▁edge	-3769
▁frag	-3770
▁accur	-3771
▁proud	-3772
▁rapid	-3773
▁adults	-3774
▁fields	-3775
▁opened	-3776
▁wisdom	-3777
▁benefit	-3778
▁holding	-3779
▁studied	-3780
▁magazine	-3781
▁opposite	-3782
▁statistics	-3783
cop	-3784
zen	-3785
athy	-3786
cles	-3787
ding	-3788
grad	-3789
wide	-3790
▁cos	-3791
▁und	-3792
▁bird	-3793
▁cred	-3794
▁intu	-3795
▁note	-3796
▁ship	-3797
▁tick	-3798
ifying	-3799
▁egypt	-3800
▁embra	-3801
▁grass	-3802
▁wheel	-3803
▁acceler	-3804
▁insight	-3805
▁prototy	-3806
▁discovery	-3807
▁seriously	-3808
▁institution	-3809
aker	-3810
axies	-3811
▁adop	-3812
▁bomb	-3813
▁defe	-3814
▁pock	-3815
▁click	-3816
▁diver	-3817
▁frequ	-3818
▁stren	-3819
▁truck	-3820
▁fellow	-3821
▁speech	-3822
▁appreci	-3823
▁accident	-3824
▁galaxies	-3825
▁influence	-3826
▁investment	-3827
▁principles	-3828
fo	-3829
asa	-3830
gth	-3831
ears	-3832
roll	-3833
▁bul	-3834
▁ants	-3835
▁astr	-3836
▁foss	-3837
▁seed	-3838
▁tail	-3839
atures	-3840
urally	-3841
▁heads	-3842
▁infin	-3843
▁legal	-3844
▁lunch	-3845
▁moves	-3846
▁caught	-3847
▁corpor	-3848
▁darwin	-3849
▁interp	-3850
▁equival	-3851
▁factory	-3852
▁shouldn	-3853
▁virtual	-3854
ibilities	-3855
▁identity	-3856
col	-3857
ager	-3858
ogen	-3859
▁hun	-3860
throp	-3861
▁core	-3862
▁flat	-3863
▁vent	-3864
idents	-3865
▁argue	-3866
▁habit	-3867
▁uncle	-3868
▁failed	-3869
▁incent	-3870
▁oceans	-3871
▁husband	-3872
▁strength	-3873
▁constantly	-3874
▁responsible	-3875
reg	-3876
ctic	-3877
ysis	-3878
▁mer	-3879
atell	-3880
ropri	-3881
▁spot	-3882
▁stuck	-3883
▁depart	-3884
▁master	-3885
▁thinks	-3886
▁organic	-3887
▁airplane	-3888
▁creation	-3889
▁sequence	-3890
▁hopefully	-3891
apy	-3892
uing	-3893
ander	-3894
illed	-3895
place	-3896
▁chap	-3897
▁horr	-3898
▁repe	-3899
icians	-3900
▁avoid	-3901
▁dolph	-3902
▁horse	-3903
▁indic	-3904
▁shoes	-3905
▁subst	-3906
▁tumor	-3907
▁harder	-3908
▁leaving	-3909
▁mothers	-3910
▁engineer	-3911
▁finished	-3912
▁followed	-3913
▁childhood	-3914
▁agriculture	-3915
▁fascinating	-3916
ara	-3917
▁1,	-3918
airs	-3919
▁wik	-3920
essed	-3921
inist	-3922
using	-3923
▁cosm	-3924
▁hate	-3925
▁opin	-3926
▁roof	-3927
▁apple	-3928
▁bound	-3929
▁brown	-3930
▁franc	-3931
▁dreams	-3932
▁satell	-3933
▁article	-3934
▁compare	-3935
▁regular	-3936
▁volunte	-3937
▁operating	-3938
▁importantly	-3939
olds	-3940
▁van	-3941
▁vot	-3942
▁bone	-3943
▁held	-3944
▁stim	-3945
▁hyper	-3946
▁sport	-3947
▁damage	-3948
▁degree	-3949
▁desire	-3950
▁yester	-3951
▁leading	-3952
▁believed	-3953
▁fighting	-3954
▁platform	-3955
▁tomorrow	-3956
▁languages	-3957
▁washington	-3958
af	-3959
igr	-3960
▁pow	-3961
▁tag	-3962
apers	-3963
iding	-3964
▁anti	-3965
▁diet	-3966
▁peak	-3967
▁seat	-3968
▁soph	-3969
▁wear	-3970
orders	-3971
▁exhib	-3972
▁round	-3973
ometers	-3974
ruption	-3975
▁breath	-3976
▁commit	-3977
▁dinner	-3978
▁remote	-3979
▁transm	-3980
ifically	-3981
▁distance	-3982
▁molecule	-3983
▁previous	-3984
aurs	-3985
eral	-3986
▁fis	-3987
▁pages	-3988
▁raised	-3989
ulations	-3990
▁failure	-3991
▁justice	-3992
▁whenever	-3993
▁invisible	-3994
▁professional	-3995
▁transformation	-3996
iat	-3997
rum	-3998
▁35	-3999
anes	-4000
▁dry	-4001
▁mel	-4002
▁bear	-4003
▁empt	-4004
▁exer	-4005
▁subm	-4006
ensity	-4007
▁quote	-4008
▁simpl	-4009
▁caused	-4010
▁church	-4011
▁deeply	-4012
▁garden	-4013
▁pounds	-4014
▁reward	-4015
▁artific	-4016
▁trained	-4017
▁weapons	-4018
▁investig	-4019
▁survival	-4020
▁cognitive	-4021
▁economics	-4022
▁necessary	-4023
▁principle	-4024
▁yesterday	-4025
▁equivalent	-4026
▁civilization	-4027
apse	-4028
raft	-4029
vant	-4030
▁bag	-4031
ength	-4032
▁arms	-4033
▁disp	-4034
▁gala	-4035
▁glam	-4036
▁beach	-4037
▁cycle	-4038
▁steps	-4039
▁convin	-4040
▁inform	-4041
▁unless	-4042
▁capable	-4043
▁wearing	-4044
▁resource	-4045
▁advantage	-4046
▁entertain	-4047
▁dimensions	-4048
▁consumption	-4049
lex	-4050
uls	-4051
▁99	-4052
isco	-4053
▁kore	-4054
▁vall	-4055
▁brief	-4056
▁grade	-4057
▁grown	-4058
▁names	-4059
▁prote	-4060
▁teles	-4061
▁attach	-4062
▁leaves	-4063
▁select	-4064
▁versus	-4065
▁limited	-4066
▁malaria	-4067
▁managed	-4068
▁replace	-4069
▁worried	-4070
▁dinosaurs	-4071
▁distribution	-4072
oses	-4073
▁fif	-4074
▁ton	-4075
essel	-4076
iency	-4077
▁soil	-4078
▁wond	-4079
▁equal	-4080
▁quiet	-4081
▁advert	-4082
▁explan	-4083
▁finish	-4084
▁galaxy	-4085
▁muscle	-4086
▁shapes	-4087
▁charles	-4088
▁require	-4089
▁theater	-4090
▁document	-4091
▁everyday	-4092
▁surprise	-4093
▁electrical	-4094
care	-4095
anted	-4096
asion	-4097
ipped	-4098
▁fell	-4099
▁intr	-4100
▁load	-4101
▁warm	-4102
▁crowd	-4103
▁letter	-4104
▁replic	-4105
▁sexual	-4106
▁signal	-4107
▁spring	-4108
▁station	-4109
▁suppose	-4110
▁vehicle	-4111
▁launched	-4112
▁majority	-4113
▁mentioned	-4114
▁increasingly	-4115
ns	-4116
yl	-4117
ham	-4118
fish	-4119
▁pip	-4120
▁bush	-4121
▁exch	-4122
▁rout	-4123
▁coral	-4124
▁crime	-4125
▁faith	-4126
▁heavy	-4127
▁sugar	-4128
oration	-4129
▁battle	-4130
▁hidden	-4131
▁implic	-4132
▁origin	-4133
▁paying	-4134
▁highest	-4135
▁protein	-4136
▁roughly	-4137
▁treated	-4138
▁classroom	-4139
▁concerned	-4140
▁described	-4141
▁institute	-4142
▁universal	-4143
iot	-4144
lin	-4145
set	-4146
bble	-4147
▁bow	-4148
known	-4149
point	-4150
▁ange	-4151
ipping	-4152
▁2,000	-4153
▁kenya	-4154
▁plane	-4155
▁prime	-4156
instein	-4157
▁debate	-4158
▁george	-4159
▁losing	-4160
▁vessel	-4161
▁dynamic	-4162
▁currently	-4163
▁leadership	-4164
enty	-4165
port	-4166
▁mat	-4167
eline	-4168
osing	-4169
▁arts	-4170
▁awful	-4171
▁holes	-4172
▁teeth	-4173
▁closed	-4174
▁mexico	-4175
▁toward	-4176
▁voices	-4177
▁100,000	-4178
▁curious	-4179
▁precise	-4180
▁viruses	-4181
▁consumer	-4182
▁einstein	-4183
▁japanese	-4184
▁ordinary	-4185
▁separate	-4186
▁essential	-4187
▁grandmother	-4188
▁interaction	-4189
au	-4190
ta	-4191
enn	-4192
ked	-4193
ume	-4194
ocol	-4195
▁nur	-4196
▁saf	-4197
▁nerv	-4198
▁shut	-4199
▁wars	-4200
ession	-4201
▁aging	-4202
▁veget	-4203
akistan	-4204
▁circum	-4205
▁exists	-4206
▁drawing	-4207
▁nigeria	-4208
▁warming	-4209
▁multiple	-4210
▁strategy	-4211
▁collective	-4212
▁depression	-4213
ael	-4214
cil	-4215
pid	-4216
▁ru	-4217
aked	-4218
iors	-4219
roph	-4220
▁due	-4221
▁era	-4222
▁lie	-4223
craft	-4224
neath	-4225
▁abst	-4226
▁coal	-4227
▁hasn	-4228
▁kick	-4229
▁pray	-4230
▁purs	-4231
▁spin	-4232
▁rural	-4233
entally	-4234
issions	-4235
▁motion	-4236
▁profit	-4237
▁experts	-4238
▁illustr	-4239
▁invited	-4240
▁compared	-4241
▁european	-4242
▁construct	-4243
▁newspaper	-4244
▁surprised	-4245
▁convention	-4246
▁underneath	-4247
▁intellectual	-4248
bur	-4249
emy	-4250
ibr	-4251
erson	-4252
ortex	-4253
▁acqu	-4254
▁evil	-4255
▁jack	-4256
▁islam	-4257
▁stress	-4258
▁valley	-4259
▁opening	-4260
▁feelings	-4261
▁planning	-4262
▁continent	-4263
▁interface	-4264
▁mortality	-4265
▁worldwide	-4266
▁intelligent	-4267
ca	-4268
de	-4269
dy	-4270
hab	-4271
▁cow	-4272
erves	-4273
▁agre	-4274
▁bits	-4275
▁init	-4276
▁lift	-4277
▁myth	-4278
▁puts	-4279
ipment	-4280
▁eleph	-4281
▁grain	-4282
▁shall	-4283
▁sweet	-4284
▁fossil	-4285
▁leader	-4286
▁signals	-4287
▁succeed	-4288
▁contract	-4289
▁pakistan	-4290
▁soldiers	-4291
▁equipment	-4292
▁associated	-4293
▁protection	-4294
▁transition	-4295
min	-4296
cipl	-4297
▁dip	-4298
▁impl	-4299
▁valu	-4300
elling	-4301
▁inner	-4302
▁sites	-4303
▁steel	-4304
▁belong	-4305
▁phones	-4306
▁studio	-4307
▁chicken	-4308
▁covered	-4309
▁killing	-4310
▁twitter	-4311
▁weather	-4312
▁artificial	-4313
▁generations	-4314
▁consequences	-4315
hi	-4316
▁45	-4317
▁ox	-4318
▁gap	-4319
▁rat	-4320
▁biom	-4321
▁bull	-4322
▁club	-4323
▁lect	-4324
▁liqu	-4325
▁myst	-4326
▁whom	-4327
▁colon	-4328
▁destr	-4329
▁marri	-4330
▁gather	-4331
▁ladies	-4332
▁script	-4333
▁status	-4334
▁nervous	-4335
▁appropri	-4336
▁emerging	-4337
▁northern	-4338
▁property	-4339
▁australia	-4340
▁independent	-4341
▁construction	-4342
▁fal	-4343
▁pil	-4344
▁sen	-4345
agers	-4346
▁date	-4347
▁disc	-4348
▁rein	-4349
▁suit	-4350
pected	-4351
▁chimp	-4352
▁kitch	-4353
▁layer	-4354
▁lifet	-4355
▁limit	-4356
▁recon	-4357
▁frustr	-4358
▁reform	-4359
▁review	-4360
▁england	-4361
▁letters	-4362
▁library	-4363
▁radical	-4364
▁designing	-4365
▁technical	-4366
▁typically	-4367
▁corruption	-4368
ae	-4369
bi	-4370
mas	-4371
pan	-4372
▁atl	-4373
▁nav	-4374
olves	-4375
▁bees	-4376
▁blow	-4377
▁diam	-4378
▁lady	-4379
▁poem	-4380
▁reef	-4381
▁empty	-4382
▁folks	-4383
▁james	-4384
▁spoke	-4385
▁stood	-4386
▁deeper	-4387
▁height	-4388
▁michael	-4389
▁setting	-4390
▁cultures	-4391
▁definitely	-4392
▁department	-4393
▁expression	-4394
▁importance	-4395
▁relatively	-4396
20	-4397
new	-4398
oes	-4399
pet	-4400
acle	-4401
▁wit	-4402
estic	-4403
orous	-4404
rooms	-4405
uries	-4406
▁army	-4407
▁dots	-4408
▁hunt	-4409
▁lawy	-4410
▁orch	-4411
▁pure	-4412
▁tall	-4413
acters	-4414
encies	-4415
▁daily	-4416
▁homes	-4417
▁manip	-4418
▁solid	-4419
▁filled	-4420
▁picked	-4421
▁sharks	-4422
▁stupid	-4423
▁cutting	-4424
▁chemicals	-4425
▁chemistry	-4426
▁mountains	-4427
▁characters	-4428
▁alternative	-4429
▁entrepreneurs	-4430
ago	-4431
rest	-4432
organ	-4433
▁dogs	-4434
▁hung	-4435
▁nasa	-4436
▁qual	-4437
▁shif	-4438
▁user	-4439
ension	-4440
▁fract	-4441
▁pregn	-4442
▁facing	-4443
▁senses	-4444
▁sphere	-4445
▁stream	-4446
▁britain	-4447
▁extract	-4448
▁feedback	-4449
▁pleasure	-4450
▁thoughts	-4451
▁organized	-4452
▁practical	-4453
▁mathematic	-4454
oh	-4455
car	-4456
lom	-4457
▁hi	-4458
▁mc	-4459
mber	-4460
semb	-4461
▁ing	-4462
▁tan	-4463
iques	-4464
▁swed	-4465
▁unex	-4466
▁annou	-4467
▁metal	-4468
▁notes	-4469
▁users	-4470
▁canada	-4471
▁medium	-4472
▁movies	-4473
▁neuros	-4474
▁organs	-4475
▁player	-4476
▁winter	-4477
▁kitchen	-4478
▁lessons	-4479
▁partner	-4480
▁disaster	-4481
▁spectrum	-4482
▁invention	-4483
▁marketing	-4484
▁kilometers	-4485
▁photographs	-4486
▁mathematical	-4487
ino	-4488
aled	-4489
life	-4490
odes	-4491
▁jan	-4492
▁pac	-4493
▁pin	-4494
▁recy	-4495
▁silk	-4496
▁thom	-4497
▁wave	-4498
ctions	-4499
▁concl	-4500
▁estab	-4501
▁flies	-4502
▁honor	-4503
▁reven	-4504
▁stone	-4505
▁houses	-4506
▁liquid	-4507
▁arrived	-4508
▁cartoon	-4509
▁eastern	-4510
▁married	-4511
▁affected	-4512
▁molecular	-4513
▁producing	-4514
▁efficiency	-4515
▁introduced	-4516
▁effectively	-4517
▁possibilities	-4518
mp	-4519
edic	-4520
▁cha	-4521
▁mak	-4522
▁oct	-4523
▁pun	-4524
ublic	-4525
▁decl	-4526
▁dial	-4527
▁gang	-4528
▁grid	-4529
▁lies	-4530
▁maps	-4531
▁plus	-4532
▁scen	-4533
▁categ	-4534
▁chain	-4535
▁chart	-4536
▁negot	-4537
▁saved	-4538
▁scene	-4539
▁smile	-4540
▁extend	-4541
▁survey	-4542
▁calling	-4543
▁details	-4544
▁minister	-4545
▁penguins	-4546
▁reaction	-4547
▁southern	-4548
▁considered	-4549
▁instrument	-4550
zing	-4551
▁hol	-4552
▁les	-4553
▁rub	-4554
ograp	-4555
▁hadn	-4556
▁mush	-4557
▁root	-4558
mented	-4559
▁perce	-4560
▁prove	-4561
▁contem	-4562
▁factor	-4563
▁laptop	-4564
▁cooking	-4565
▁dealing	-4566
▁germany	-4567
▁selling	-4568
▁concentr	-4569
▁epidemic	-4570
▁received	-4571
▁sentence	-4572
▁struggle	-4573
▁employees	-4574
▁interpret	-4575
▁sophistic	-4576
▁experienced	-4577
▁specifically	-4578
igm	-4579
bors	-4580
imin	-4581
▁haw	-4582
▁bare	-4583
▁gift	-4584
▁unus	-4585
▁weak	-4586
▁broke	-4587
▁ideal	-4588
▁mosqu	-4589
▁sight	-4590
▁toile	-4591
▁buying	-4592
▁expert	-4593
▁contain	-4594
▁mistake	-4595
▁players	-4596
▁wikiped	-4597
▁location	-4598
▁requires	-4599
▁valuable	-4600
▁encourage	-4601
▁radiation	-4602
▁businesses	-4603
han	-4604
mon	-4605
ole	-4606
irty	-4607
lock	-4608
▁eld	-4609
▁nar	-4610
▁wel	-4611
▁clip	-4612
▁pole	-4613
▁surf	-4614
▁vote	-4615
lation	-4616
▁contr	-4617
▁compar	-4618
▁prefer	-4619
▁trials	-4620
▁gravity	-4621
▁witness	-4622
▁circumst	-4623
▁exercise	-4624
▁mistakes	-4625
▁introduce	-4626
▁democratic	-4627
ka	-4628
ingu	-4629
uits	-4630
▁fib	-4631
▁sir	-4632
etics	-4633
▁desk	-4634
▁dish	-4635
▁reci	-4636
▁snow	-4637
forest	-4638
ushing	-4639
▁antib	-4640
▁march	-4641
▁occup	-4642
▁upper	-4643
▁advent	-4644
▁illness	-4645
▁keeping	-4646
▁primary	-4647
▁unusual	-4648
▁prepared	-4649
▁behaviors	-4650
▁components	-4651
▁properties	-4652
▁psychology	-4653
▁restaurant	-4654
▁techniques	-4655
30	-4656
la	-4657
ded	-4658
uel	-4659
zed	-4660
anze	-4661
cast	-4662
cond	-4663
foot	-4664
▁bat	-4665
▁gay	-4666
▁ham	-4667
▁lic	-4668
▁1990	-4669
▁2008	-4670
▁mand	-4671
▁nest	-4672
▁ring	-4673
▁unit	-4674
▁fewer	-4675
▁union	-4676
▁analog	-4677
▁bottle	-4678
▁diplom	-4679
▁former	-4680
▁safety	-4681
▁solved	-4682
▁videos	-4683
▁battery	-4684
▁command	-4685
▁quantum	-4686
▁whereas	-4687
▁abstract	-4688
▁generate	-4689
▁lifetime	-4690
▁proteins	-4691
▁republic	-4692
▁chimpanze	-4693
▁generally	-4694
▁naturally	-4695
▁wikipedia	-4696
▁management	-4697
▁represents	-4698
▁politicians	-4699
▁evolutionary	-4700
nes	-4701
aren	-4702
cend	-4703
▁lou	-4704
▁ric	-4705
▁sla	-4706
▁bran	-4707
▁cast	-4708
▁gain	-4709
▁gras	-4710
▁gulf	-4711
▁pian	-4712
▁runs	-4713
▁wake	-4714
▁initi	-4715
▁liked	-4716
▁sides	-4717
▁theme	-4718
ulating	-4719
vention	-4720
▁define	-4721
▁length	-4722
▁poetry	-4723
▁rocket	-4724
▁virgin	-4725
▁autonom	-4726
▁channel	-4727
▁testing	-4728
▁watched	-4729
▁analysis	-4730
▁astronom	-4731
▁carrying	-4732
▁convince	-4733
▁exchange	-4734
▁graduate	-4735
▁disappear	-4736
▁existence	-4737
▁neighbors	-4738
▁pollution	-4739
▁processes	-4740
ux	-4741
▁py	-4742
abet	-4743
▁cub	-4744
▁ens	-4745
▁unp	-4746
iring	-4747
▁ends	-4748
▁fake	-4749
▁hill	-4750
▁lens	-4751
▁shad	-4752
▁soul	-4753
▁wine	-4754
▁3,000	-4755
▁error	-4756
▁thick	-4757
osition	-4758
▁credit	-4759
▁critic	-4760
▁ingred	-4761
▁pulled	-4762
▁capture	-4763
▁quarter	-4764
▁variety	-4765
▁visible	-4766
▁brothers	-4767
▁expected	-4768
▁identify	-4769
▁ancestors	-4770
▁satellite	-4771
▁situations	-4772
▁comfortable	-4773
▁researchers	-4774
da	-4775
rs	-4776
za	-4777
cal	-4778
icy	-4779
▁aug	-4780
▁ber	-4781
▁max	-4782
erved	-4783
▁diss	-4784
▁flex	-4785
▁mile	-4786
▁tons	-4787
▁aston	-4788
▁atoms	-4789
▁goods	-4790
▁risks	-4791
▁sympt	-4792
▁taste	-4793
llywood	-4794
▁bubble	-4795
▁driver	-4796
▁member	-4797
▁mirror	-4798
▁regard	-4799
▁closely	-4800
▁depends	-4801
▁opinion	-4802
▁advanced	-4803
▁birthday	-4804
▁clinical	-4805
▁congress	-4806
▁marriage	-4807
▁sunlight	-4808
▁establish	-4809
▁perception	-4810
▁personally	-4811
ox	-4812
▁75	-4813
berg	-4814
cons	-4815
keys	-4816
tube	-4817
▁194	-4818
▁1960	-4819
▁hurt	-4820
▁nurs	-4821
▁perm	-4822
▁remo	-4823
▁sees	-4824
▁thin	-4825
▁goals	-4826
▁horiz	-4827
▁hotel	-4828
▁ridic	-4829
▁serve	-4830
▁steve	-4831
▁stock	-4832
▁tests	-4833
▁divide	-4834
▁promise	-4835
▁reached	-4836
▁reverse	-4837
▁transpl	-4838
▁vaccine	-4839
▁hydrogen	-4840
▁emissions	-4841
ov	-4842
urb	-4843
▁asp	-4844
▁jer	-4845
▁odd	-4846
lying	-4847
▁bell	-4848
▁ears	-4849
▁mart	-4850
▁5,000	-4851
▁claim	-4852
▁input	-4853
▁minim	-4854
▁renew	-4855
▁blocks	-4856
▁forced	-4857
▁forgot	-4858
▁hoping	-4859
▁inevit	-4860
▁pollen	-4861
▁severe	-4862
▁thomas	-4863
▁burning	-4864
▁empathy	-4865
▁intense	-4866
▁mosquit	-4867
▁apparent	-4868
▁ultimate	-4869
▁gentlemen	-4870
▁algorithms	-4871
▁discussion	-4872
▁healthcare	-4873
▁percentage	-4874
▁environments	-4875
▁collaboration	-4876
ita	-4877
rie	-4878
ula	-4879
war	-4880
amin	-4881
▁gut	-4882
▁vag	-4883
icing	-4884
scale	-4885
▁cens	-4886
▁joke	-4887
▁pair	-4888
▁compl	-4889
▁ought	-4890
▁polio	-4891
▁topic	-4892
▁whist	-4893
▁remain	-4894
▁reprod	-4895
▁string	-4896
▁feature	-4897
▁fishing	-4898
▁harvard	-4899
▁privile	-4900
▁sending	-4901
▁sources	-4902
▁dramatic	-4903
▁internal	-4904
▁recorded	-4905
▁wireless	-4906
▁carefully	-4907
▁continued	-4908
▁movements	-4909
▁traveling	-4910
▁electronic	-4911
▁destruction	-4912
fit	-4913
abol	-4914
cers	-4915
oint	-4916
uild	-4917
umps	-4918
▁bee	-4919
amics	-4920
▁2007	-4921
▁dece	-4922
▁exec	-4923
▁gree	-4924
▁poly	-4925
▁shar	-4926
cience	-4927
licity	-4928
porary	-4929
▁cards	-4930
▁domin	-4931
▁facts	-4932
▁rates	-4933
▁acting	-4934
▁clever	-4935
▁conver	-4936
▁corres	-4937
▁fisher	-4938
▁robert	-4939
▁spider	-4940
▁applied	-4941
▁circuit	-4942
▁figures	-4943
▁islands	-4944
▁youtube	-4945
▁infected	-4946
▁convinced	-4947
▁interests	-4948
▁wondering	-4949
▁laboratory	-4950
▁vulnerable	-4951
▁connections	-4952
▁explanation	-4953
▁sophisticated	-4954
ih	-4955
rom	-4956
vis	-4957
▁dh	-4958
onal	-4959
onym	-4960
▁uns	-4961
▁wat	-4962
ucing	-4963
▁2000	-4964
▁alex	-4965
▁bost	-4966
▁hits	-4967
▁milk	-4968
▁ride	-4969
▁wash	-4970
▁cyber	-4971
▁illeg	-4972
▁shame	-4973
▁skill	-4974
▁waves	-4975
itarian	-4976
▁driven	-4977
▁explos	-4978
inations	-4979
▁falling	-4980
▁harvest	-4981
▁include	-4982
▁windows	-4983
▁administ	-4984
▁instruct	-4985
▁occasion	-4986
▁trillion	-4987
▁framework	-4988
▁francisco	-4989
▁operation	-4990
▁religions	-4991
▁applications	-4992
▁technological	-4993
dp	-4994
pes	-4995
▁2.	-4996
adic	-4997
down	-4998
hold	-4999
rete	-5000
whel	-5001
▁600	-5002
▁aff	-5003
▁jul	-5004
▁las	-5005
▁wal	-5006
itals	-5007
iture	-5008
vable	-5009
▁cere	-5010
▁cure	-5011
▁mere	-5012
▁stan	-5013
▁tape	-5014
arrass	-5015
stream	-5016
▁added	-5017
▁curve	-5018
▁dedic	-5019
▁lying	-5020
▁paris	-5021
▁signs	-5022
▁boston	-5023
▁marine	-5024
▁patent	-5025
▁amounts	-5026
▁centers	-5027
▁consist	-5028
▁dropped	-5029
▁orchest	-5030
▁remains	-5031
▁singing	-5032
abilities	-5033
▁overwhel	-5034
▁embarrass	-5035
▁increased	-5036
▁controlled	-5037
▁economists	-5038
▁literature	-5039
▁exploration	-5040
▁transportation	-5041
▁0	-5042
amb	-5043
bra	-5044
bre	-5045
can	-5046
nel	-5047
▁gy	-5048
tail	-5049
▁adj	-5050
▁ped	-5051
▁phr	-5052
alled	-5053
pping	-5054
▁fert	-5055
▁furn	-5056
▁lake	-5057
▁nose	-5058
▁resc	-5059
▁tube	-5060
olving	-5061
▁court	-5062
▁keeps	-5063
▁poore	-5064
▁satis	-5065
▁advice	-5066
▁assign	-5067
▁astero	-5068
▁chocol	-5069
▁excell	-5070
▁formed	-5071
▁linked	-5072
▁option	-5073
▁cameras	-5074
▁comment	-5075
▁encoura	-5076
▁neither	-5077
▁combined	-5078
▁horrible	-5079
▁combination	-5080
▁fundamentally	-5081
vi	-5082
500	-5083
ener	-5084
talk	-5085
▁gdp	-5086
▁mim	-5087
▁pad	-5088
acing	-5089
being	-5090
enced	-5091
▁acts	-5092
▁dere	-5093
▁golf	-5094
▁isol	-5095
▁pump	-5096
illing	-5097
ternal	-5098
▁bones	-5099
▁expon	-5100
▁staff	-5101
▁cortex	-5102
▁fright	-5103
▁handle	-5104
▁sample	-5105
▁discipl	-5106
▁extinct	-5107
▁fingers	-5108
▁monkeys	-5109
▁outcome	-5110
▁existing	-5111
▁microbes	-5112
▁relevant	-5113
▁component	-5114
▁computing	-5115
▁unexpected	-5116
▁presentation	-5117
▁entertainment	-5118
och	-5119
oft	-5120
▁22	-5121
▁ii	-5122
lymp	-5123
ouds	-5124
over	-5125
tech	-5126
▁beg	-5127
▁bes	-5128
▁dot	-5129
▁mac	-5130
ament	-5131
icted	-5132
▁mall	-5133
▁trig	-5134
▁roots	-5135
▁stret	-5136
inction	-5137
▁clouds	-5138
▁lifest	-5139
▁pocket	-5140
▁shares	-5141
▁storyt	-5142
▁worlds	-5143
▁courage	-5144
▁operate	-5145
▁options	-5146
▁pacific	-5147
▁therapy	-5148
▁younger	-5149
▁equation	-5150
▁explains	-5151
▁suggests	-5152
▁telescope	-5153
▁collection	-5154
▁inspiration	-5155
▁circumstances	-5156
sem	-5157
▁23	-5158
▁ip	-5159
▁ze	-5160
bage	-5161
cont	-5162
osis	-5163
▁tri	-5164
lines	-5165
▁chic	-5166
▁elim	-5167
▁flew	-5168
▁gest	-5169
▁films	-5170
▁imple	-5171
▁olymp	-5172
▁refer	-5173
▁storm	-5174
▁trend	-5175
▁wired	-5176
ription	-5177
▁deaths	-5178
▁genius	-5179
▁perman	-5180
▁relate	-5181
▁factors	-5182
▁musical	-5183
▁rapidly	-5184
▁authority	-5185
▁awareness	-5186
▁hospitals	-5187
▁recording	-5188
▁architects	-5189
▁behavioral	-5190
▁productive	-5191
▁simplicity	-5192
▁appropriate	-5193
▁conventional	-5194
agn	-5195
ras	-5196
rus	-5197
van	-5198
vas	-5199
vin	-5200
hour	-5201
what	-5202
▁250	-5203
▁fan	-5204
▁tap	-5205
abled	-5206
eness	-5207
lands	-5208
sters	-5209
▁atom	-5210
▁corn	-5211
▁rush	-5212
▁scar	-5213
▁tent	-5214
▁vert	-5215
iosity	-5216
▁coord	-5217
▁memor	-5218
▁pitch	-5219
▁title	-5220
▁stands	-5221
ographer	-5222
▁chicago	-5223
▁clothes	-5224
▁conclud	-5225
▁dancing	-5226
▁mystery	-5227
▁tonight	-5228
▁accurate	-5229
▁director	-5230
▁features	-5231
▁magnetic	-5232
▁official	-5233
▁paradigm	-5234
▁romantic	-5235
▁symmetry	-5236
▁wondered	-5237
▁determine	-5238
▁sculpture	-5239
▁selection	-5240
▁technique	-5241
▁activities	-5242
▁philosophy	-5243
▁profession	-5244
▁manufacturing	-5245
cut	-5246
orb	-5247
ota	-5248
ris	-5249
spe	-5250
ups	-5251
nced	-5252
▁dut	-5253
▁hem	-5254
▁raw	-5255
▁tro	-5256
akers	-5257
angle	-5258
force	-5259
▁eggs	-5260
▁sets	-5261
▁spok	-5262
▁vibr	-5263
▁zoom	-5264
athers	-5265
▁breed	-5266
▁estim	-5267
▁falls	-5268
▁navig	-5269
▁queen	-5270
▁shell	-5271
▁titan	-5272
▁boring	-5273
▁encoun	-5274
▁negoti	-5275
▁prices	-5276
▁accompl	-5277
▁afterno	-5278
▁decline	-5279
▁nowhere	-5280
▁origami	-5281
▁regions	-5282
▁victims	-5283
▁collapse	-5284
▁stronger	-5285
▁subjects	-5286
▁tracking	-5287
▁vehicles	-5288
▁mechanism	-5289
▁educational	-5290
elly	-5291
iled	-5292
▁irr	-5293
▁sem	-5294
entic	-5295
▁2010	-5296
▁bicy	-5297
▁hide	-5298
▁boxes	-5299
▁chose	-5300
▁delic	-5301
▁depth	-5302
▁doubt	-5303
▁false	-5304
▁insur	-5305
▁plate	-5306
▁prost	-5307
▁silic	-5308
▁split	-5309
▁golden	-5310
▁parall	-5311
▁whales	-5312
▁writer	-5313
▁airport	-5314
▁diagram	-5315
▁empower	-5316
▁feeding	-5317
▁funding	-5318
▁illegal	-5319
▁release	-5320
▁unknown	-5321
▁vessels	-5322
connected	-5323
▁africans	-5324
▁creature	-5325
▁hypothes	-5326
▁occurred	-5327
▁swimming	-5328
▁wherever	-5329
▁afternoon	-5330
▁celebrate	-5331
▁conclusion	-5332
▁meaningful	-5333
▁mechanical	-5334
▁sustainability	-5335
ek	-5336
ij	-5337
iop	-5338
oll	-5339
▁na	-5340
gers	-5341
irds	-5342
thal	-5343
▁amp	-5344
▁fou	-5345
▁rhy	-5346
▁tea	-5347
ended	-5348
gment	-5349
▁budd	-5350
▁cath	-5351
▁span	-5352
▁bible	-5353
▁chest	-5354
▁globe	-5355
▁liver	-5356
▁phase	-5357
▁plans	-5358
▁clinic	-5359
▁drives	-5360
▁interf	-5361
▁puzzle	-5362
▁slides	-5363
▁careful	-5364
▁frankly	-5365
▁largely	-5366
▁surgeon	-5367
▁tedtalk	-5368
▁unclear	-5369
▁violent	-5370
▁messages	-5371
▁required	-5372
▁chocolate	-5373
▁collected	-5374
▁sensitive	-5375
▁directions	-5376
▁innovative	-5377
▁passionate	-5378
▁underwater	-5379
▁participate	-5380
▁potentially	-5381
▁transformed	-5382
hr	-5383
asm	-5384
azz	-5385
nda	-5386
▁ts	-5387
▁rig	-5388
▁rit	-5389
▁sar	-5390
child	-5391
iters	-5392
▁1980	-5393
▁alph	-5394
▁axis	-5395
▁boom	-5396
▁busy	-5397
▁cock	-5398
▁ment	-5399
▁ours	-5400
▁till	-5401
isters	-5402
ortion	-5403
▁admit	-5404
▁bombs	-5405
▁clock	-5406
▁dress	-5407
▁embed	-5408
▁obama	-5409
▁piano	-5410
▁reput	-5411
▁resil	-5412
▁shake	-5413
▁sheep	-5414
▁commod	-5415
▁lovely	-5416
▁muslim	-5417
▁stayed	-5418
▁surely	-5419
▁traged	-5420
▁designs	-5421
▁embrace	-5422
▁engaged	-5423
▁evening	-5424
▁rebuild	-5425
▁measured	-5426
▁particle	-5427
▁released	-5428
▁somewhat	-5429
▁treating	-5430
▁identical	-5431
▁paintings	-5432
▁protected	-5433
▁spiritual	-5434
▁distributed	-5435
▁instruments	-5436
edy	-5437
▁27	-5438
oded	-5439
well	-5440
▁cab	-5441
▁ray	-5442
▁voc	-5443
orter	-5444
owing	-5445
uting	-5446
▁bron	-5447
▁gray	-5448
▁neut	-5449
▁pace	-5450
▁pill	-5451
▁plug	-5452
▁sept	-5453
imeter	-5454
▁haiti	-5455
▁hello	-5456
▁korea	-5457
▁persu	-5458
▁recom	-5459
▁shock	-5460
▁stack	-5461
▁style	-5462
through	-5463
▁button	-5464
▁ethiop	-5465
▁gender	-5466
▁geomet	-5467
▁proced	-5468
▁sweden	-5469
▁balloon	-5470
▁chapter	-5471
▁equally	-5472
▁flowers	-5473
▁lecture	-5474
▁overall	-5475
▁solving	-5476
▁election	-5477
▁infinite	-5478
▁obsessed	-5479
▁presence	-5480
▁printing	-5481
▁curiosity	-5482
▁economies	-5483
▁explained	-5484
▁prototype	-5485
▁resistance	-5486
dr	-5487
my	-5488
uge	-5489
ums	-5490
▁bf	-5491
anta	-5492
icip	-5493
oked	-5494
oned	-5495
▁der	-5496
belie	-5497
esity	-5498
itors	-5499
▁hack	-5500
▁loud	-5501
▁mont	-5502
▁nets	-5503
▁tort	-5504
▁zone	-5505
owered	-5506
▁accum	-5507
▁cents	-5508
▁dirty	-5509
▁ghana	-5510
▁grows	-5511
▁honey	-5512
▁logic	-5513
▁deploy	-5514
▁hunger	-5515
▁joined	-5516
▁owners	-5517
▁portra	-5518
▁scared	-5519
▁suffer	-5520
▁combine	-5521
▁conserv	-5522
▁constit	-5523
▁defense	-5524
▁impress	-5525
▁savings	-5526
▁scratch	-5527
▁welcome	-5528
▁distinct	-5529
▁instinct	-5530
▁rational	-5531
▁christmas	-5532
▁furniture	-5533
▁measuring	-5534
▁september	-5535
▁confidence	-5536
▁greenhouse	-5537
hol	-5538
iel	-5539
rol	-5540
city	-5541
nday	-5542
rous	-5543
tery	-5544
▁bay	-5545
▁gig	-5546
▁tat	-5547
oding	-5548
▁adam	-5549
▁bath	-5550
▁coin	-5551
▁flor	-5552
▁jeff	-5553
▁lung	-5554
▁pink	-5555
phones	-5556
▁adopt	-5557
▁teams	-5558
▁usual	-5559
▁filter	-5560
▁flower	-5561
▁france	-5562
▁inject	-5563
▁diction	-5564
▁divided	-5565
▁happier	-5566
▁kingdom	-5567
▁offered	-5568
▁section	-5569
▁silence	-5570
▁silicon	-5571
▁pregnant	-5572
▁secondly	-5573
▁consumers	-5574
▁reduction	-5575
▁spreading	-5576
▁commitment	-5577
▁incentives	-5578
▁physically	-5579
▁disappeared	-5580
▁automatically	-5581
ua	-5582
va	-5583
▁rw	-5584
etch	-5585
ille	-5586
llar	-5587
oons	-5588
ooth	-5589
rors	-5590
▁ate	-5591
athan	-5592
usive	-5593
▁flag	-5594
▁grab	-5595
▁icon	-5596
▁lets	-5597
▁limb	-5598
▁outc	-5599
▁pand	-5600
▁prem	-5601
▁sque	-5602
▁decre	-5603
▁presc	-5604
▁rooms	-5605
▁songs	-5606
▁assist	-5607
▁devast	-5608
▁iphone	-5609
▁myster	-5610
▁strang	-5611
▁carried	-5612
▁classic	-5613
▁defined	-5614
▁existed	-5615
▁finance	-5616
▁fortune	-5617
▁granted	-5618
▁obesity	-5619
▁parking	-5620
▁contrast	-5621
▁dolphins	-5622
▁illusion	-5623
▁organism	-5624
▁villages	-5625
▁exploring	-5626
▁footprint	-5627
▁statement	-5628
▁processing	-5629
▁astonishing	-5630
▁implications	-5631
iox	-5632
mal	-5633
org	-5634
▁ol	-5635
greg	-5636
▁anx	-5637
▁sac	-5638
esome	-5639
iders	-5640
iform	-5641
▁1970	-5642
▁2005	-5643
▁clus	-5644
▁elev	-5645
▁horm	-5646
▁jail	-5647
▁pool	-5648
▁stro	-5649
making	-5650
▁colum	-5651
▁polar	-5652
▁toxic	-5653
▁weigh	-5654
▁border	-5655
▁candid	-5656
▁desper	-5657
▁eradic	-5658
▁secure	-5659
▁awesome	-5660
▁breathe	-5661
▁housing	-5662
▁islamic	-5663
▁painful	-5664
▁stretch	-5665
▁unbelie	-5666
▁symptoms	-5667
▁transfer	-5668
ologically	-5669
▁centuries	-5670
▁depending	-5671
▁functions	-5672
▁lifestyle	-5673
▁translate	-5674
▁apparently	-5675
▁appreciate	-5676
▁microscope	-5677
▁conservation	-5678
▁entrepreneur	-5679
▁interestingly	-5680
▁q	-5681
▁26	-5682
aret	-5683
▁meg	-5684
▁pra	-5685
▁rab	-5686
▁spr	-5687
while	-5688
▁1950	-5689
▁ages	-5690
▁bike	-5691
▁item	-5692
▁dense	-5693
▁flash	-5694
▁higgs	-5695
▁judge	-5696
▁latin	-5697
▁roads	-5698
▁tasks	-5699
▁yield	-5700
▁assume	-5701
▁curren	-5702
▁immune	-5703
▁latest	-5704
▁oxford	-5705
▁phrase	-5706
▁placed	-5707
▁rising	-5708
▁volume	-5709
▁causing	-5710
▁delight	-5711
▁records	-5712
▁samples	-5713
▁concrete	-5714
▁constant	-5715
▁disorder	-5716
▁domestic	-5717
▁properly	-5718
▁arguments	-5719
▁narrative	-5720
▁controvers	-5721
▁transplant	-5722
▁application	-5723
▁fortunately	-5724
bl	-5725
itz	-5726
ola	-5727
xas	-5728
▁36	-5729
aint	-5730
case	-5731
heim	-5732
iday	-5733
kind	-5734
rets	-5735
▁jim	-5736
▁toy	-5737
acles	-5738
itory	-5739
▁disg	-5740
▁stri	-5741
▁suic	-5742
esthes	-5743
herent	-5744
rition	-5745
▁aside	-5746
▁barri	-5747
▁congo	-5748
▁explo	-5749
▁faced	-5750
▁jelly	-5751
▁label	-5752
▁rhyth	-5753
▁skull	-5754
▁smoke	-5755
▁walks	-5756
▁whale	-5757
anthrop	-5758
▁agreed	-5759
▁heroes	-5760
▁poison	-5761
▁remove	-5762
▁struck	-5763
aneously	-5764
▁concert	-5765
▁density	-5766
▁entered	-5767
▁inspire	-5768
▁metabol	-5769
▁synthes	-5770
▁touched	-5771
▁wanting	-5772
▁recovery	-5773
▁calculate	-5774
▁reference	-5775
▁exhibition	-5776
▁optimistic	-5777
▁reputation	-5778
▁interactive	-5779
▁dramatically	-5780
ints	-5781
ogue	-5782
rect	-5783
ront	-5784
uate	-5785
▁ash	-5786
▁hat	-5787
▁jes	-5788
▁2004	-5789
▁chip	-5790
▁clay	-5791
▁fulf	-5792
▁pile	-5793
anging	-5794
arency	-5795
▁blank	-5796
▁chrom	-5797
▁elder	-5798
▁fixed	-5799
▁gates	-5800
▁orbit	-5801
▁pharm	-5802
▁pyram	-5803
▁sales	-5804
▁scary	-5805
▁score	-5806
▁texas	-5807
▁uncom	-5808
▁wings	-5809
▁behave	-5810
▁heaven	-5811
▁ignore	-5812
▁mainly	-5813
▁ritual	-5814
▁russia	-5815
▁spoken	-5816
▁actions	-5817
▁classes	-5818
▁earthqu	-5819
▁confront	-5820
▁darkness	-5821
▁elephant	-5822
▁lighting	-5823
▁parallel	-5824
▁psychiat	-5825
▁reaching	-5826
▁breathing	-5827
▁disorders	-5828
▁standards	-5829
▁synthetic	-5830
▁capitalism	-5831
▁advertising	-5832
▁partnership	-5833
▁productivity	-5834
▁transparency	-5835
wr	-5836
aks	-5837
bar	-5838
rog	-5839
▁65	-5840
ardo	-5841
ests	-5842
mers	-5843
pass	-5844
sour	-5845
▁gam	-5846
▁gro	-5847
▁jon	-5848
▁nin	-5849
▁wed	-5850
class	-5851
▁cute	-5852
▁dign	-5853
▁diox	-5854
▁tank	-5855
called	-5856
▁actor	-5857
▁chaos	-5858
▁enemy	-5859
▁manif	-5860
▁peter	-5861
▁vital	-5862
iveness	-5863
raction	-5864
▁arrest	-5865
▁extent	-5866
▁facial	-5867
▁legacy	-5868
▁monkey	-5869
▁neuron	-5870
▁palest	-5871
▁smooth	-5872
▁thrown	-5873
▁attacks	-5874
▁charity	-5875
▁collaps	-5876
▁tragedy	-5877
▁academic	-5878
▁concepts	-5879
▁download	-5880
▁drinking	-5881
▁embedded	-5882
▁meetings	-5883
▁outcomes	-5884
▁apartment	-5885
▁authentic	-5886
▁destroyed	-5887
▁telephone	-5888
▁virtually	-5889
▁afterwards	-5890
▁connecting	-5891
▁geographic	-5892
▁probability	-5893
▁breakthrough	-5894
bby	-5895
hen	-5896
onic	-5897
osen	-5898
uous	-5899
viet	-5900
▁195	-5901
▁cas	-5902
leton	-5903
opher	-5904
oster	-5905
stand	-5906
▁2009	-5907
▁clar	-5908
▁cord	-5909
▁dict	-5910
▁pour	-5911
▁rail	-5912
▁ugly	-5913
dollar	-5914
father	-5915
▁alien	-5916
▁cambr	-5917
▁carol	-5918
▁datab	-5919
▁fears	-5920
▁fifth	-5921
▁fluid	-5922
▁naked	-5923
▁opens	-5924
▁pilot	-5925
▁recyc	-5926
▁remem	-5927
▁toler	-5928
▁tower	-5929
▁50,000	-5930
▁adjust	-5931
▁amazon	-5932
▁autism	-5933
▁enable	-5934
▁excuse	-5935
▁hardly	-5936
▁nurses	-5937
▁orange	-5938
▁papers	-5939
▁paraly	-5940
▁regret	-5941
▁reject	-5942
▁talent	-5943
▁appears	-5944
▁distant	-5945
▁herself	-5946
▁january	-5947
▁leather	-5948
▁millenn	-5949
▁memories	-5950
▁shoulder	-5951
▁algorithm	-5952
▁backwards	-5953
▁copyright	-5954
▁inspiring	-5955
▁intuitive	-5956
▁ridiculous	-5957
▁surrounded	-5958
▁challenging	-5959
▁chimpanzees	-5960
▁manufacture	-5961
▁conversations	-5962
▁vulnerability	-5963
ls	-5964
tes	-5965
yal	-5966
▁mi	-5967
nded	-5968
ubes	-5969
wich	-5970
▁bos	-5971
▁cup	-5972
▁dow	-5973
▁twe	-5974
▁unh	-5975
▁ven	-5976
arant	-5977
inder	-5978
▁athe	-5979
▁cash	-5980
▁firm	-5981
▁glad	-5982
▁obst	-5983
▁plot	-5984
▁tack	-5985
abetes	-5986
▁champ	-5987
▁chief	-5988
▁derek	-5989
▁distr	-5990
▁maxim	-5991
▁multi	-5992
▁purch	-5993
▁seats	-5994
▁tight	-5995
▁tired	-5996
▁willi	-5997
▁20,000	-5998
▁agency	-5999
▁colony	-6000
▁landed	-6001
▁oldest	-6002
▁poster	-6003
▁season	-6004
▁sticks	-6005
▁tested	-6006
▁theore	-6007
▁toilet	-6008
▁uganda	-6009
▁volcan	-6010
▁weapon	-6011
▁dioxide	-6012
▁muscles	-6013
▁appeared	-6014
▁floating	-6015
▁involves	-6016
▁overcome	-6017
▁stanford	-6018
▁traveled	-6019
▁corporate	-6020
▁increases	-6021
▁microsoft	-6022
▁physicist	-6023
▁presented	-6024
▁determined	-6025
▁functional	-6026
▁controlling	-6027
▁photography	-6028
pa	-6029
ket	-6030
lyn	-6031
nic	-6032
pox	-6033
sum	-6034
fall	-6035
itud	-6036
lete	-6037
▁191	-6038
▁ink	-6039
▁nic	-6040
▁sed	-6041
▁appe	-6042
▁beer	-6043
▁beet	-6044
▁cave	-6045
▁cott	-6046
▁emer	-6047
▁emph	-6048
▁knee	-6049
▁migr	-6050
▁pupp	-6051
▁wing	-6052
▁wise	-6053
▁anger	-6054
▁angle	-6055
▁crack	-6056
▁dozen	-6057
▁links	-6058
▁units	-6059
▁youth	-6060
▁adding	-6061
▁agenda	-6062
▁chosen	-6063
▁frozen	-6064
▁plenty	-6065
▁refuge	-6066
▁soviet	-6067
▁advance	-6068
▁angeles	-6069
▁liberal	-6070
▁poorest	-6071
▁session	-6072
▁suspect	-6073
▁achieved	-6074
▁breaking	-6075
▁estimate	-6076
▁includes	-6077
▁maintain	-6078
▁manifest	-6079
▁produces	-6080
▁provides	-6081
▁smallpox	-6082
▁encounter	-6083
▁historical	-6084
▁performing	-6085
▁volunteers	-6086
▁personality	-6087
▁photographed	-6088
box	-6089
uum	-6090
▁32	-6091
atom	-6092
ione	-6093
lims	-6094
▁aim	-6095
▁ath	-6096
▁gps	-6097
▁hal	-6098
▁hen	-6099
▁ros	-6100
amine	-6101
maker	-6102
▁asks	-6103
▁brib	-6104
▁mate	-6105
profit	-6106
▁digit	-6107
▁drill	-6108
▁foods	-6109
▁helic	-6110
▁imper	-6111
▁knock	-6112
▁plays	-6113
▁sheet	-6114
▁spots	-6115
▁upset	-6116
▁yours	-6117
▁borrow	-6118
▁extrem	-6119
▁fabric	-6120
▁hearts	-6121
▁narrow	-6122
▁rarely	-6123
▁saturn	-6124
▁silent	-6125
▁tribes	-6126
▁tricks	-6127
▁trucks	-6128
▁vacuum	-6129
▁cheaper	-6130
▁chromos	-6131
▁habitat	-6132
▁license	-6133
▁pushing	-6134
▁pyramid	-6135
▁reduced	-6136
▁regener	-6137
▁allowing	-6138
▁attached	-6139
▁diabetes	-6140
▁textbook	-6141
▁vertical	-6142
▁continues	-6143
▁excellent	-6144
▁practices	-6145
▁precisely	-6146
▁rainforest	-6147
▁demonstrate	-6148
▁discoveries	-6149
▁populations	-6150
▁globalization	-6151
▁psychological	-6152
oo	-6153
ari	-6154
gic	-6155
▁du	-6156
▁kb	-6157
bits	-6158
ifer	-6159
illy	-6160
lies	-6161
rich	-6162
▁ack	-6163
▁aer	-6164
▁gla	-6165
▁inh	-6166
▁lun	-6167
▁mes	-6168
enger	-6169
▁2003	-6170
▁2006	-6171
▁dust	-6172
▁gand	-6173
▁gore	-6174
▁loop	-6175
▁manh	-6176
▁salt	-6177
▁viet	-6178
arctic	-6179
rained	-6180
▁abund	-6181
▁angry	-6182
▁craft	-6183
▁disag	-6184
▁exped	-6185
▁finds	-6186
▁pione	-6187
▁reson	-6188
▁schol	-6189
▁sharp	-6190
▁spell	-6191
iminals	-6192
quality	-6193
▁anonym	-6194
▁arctic	-6195
▁hungry	-6196
▁intent	-6197
▁observ	-6198
▁output	-6199
▁signed	-6200
▁sports	-6201
▁bicycle	-6202
▁opposed	-6203
▁paradox	-6204
▁removed	-6205
▁atlantic	-6206
▁district	-6207
▁ethiopia	-6208
▁fabulous	-6209
▁facility	-6210
▁imagined	-6211
▁provided	-6212
▁dedicated	-6213
▁dimension	-6214
▁emergency	-6215
▁earthquake	-6216
▁fascinated	-6217
▁motivation	-6218
ida	-6219
ndr	-6220
ura	-6221
▁0.	-6222
fast	-6223
keep	-6224
uity	-6225
▁aes	-6226
▁bug	-6227
▁enh	-6228
▁sin	-6229
▁wol	-6230
agger	-6231
iogen	-6232
ribly	-6233
state	-6234
think	-6235
▁bias	-6236
▁refr	-6237
acular	-6238
▁aband	-6239
▁conve	-6240
▁drove	-6241
▁fuels	-6242
▁likes	-6243
▁minor	-6244
▁nurse	-6245
▁relax	-6246
▁smith	-6247
▁stere	-6248
▁utter	-6249
▁vietn	-6250
astroph	-6251
forward	-6252
▁crying	-6253
▁martin	-6254
▁phosph	-6255
▁settle	-6256
▁trends	-6257
▁worker	-6258
esthesia	-6259
etically	-6260
▁anthrop	-6261
▁clients	-6262
▁initial	-6263
▁letting	-6264
▁passing	-6265
▁aircraft	-6266
▁conclude	-6267
▁controls	-6268
▁dynamics	-6269
▁morality	-6270
▁sandwich	-6271
▁shooting	-6272
▁surfaces	-6273
▁antarctic	-6274
▁cambridge	-6275
▁elsewhere	-6276
▁hollywood	-6277
▁permanent	-6278
▁searching	-6279
▁accessible	-6280
▁integrated	-6281
▁recognized	-6282
▁philanthrop	-6283
▁transparent	-6284
▁agricultural	-6285
ato	-6286
aws	-6287
top	-6288
▁ub	-6289
appy	-6290
emen	-6291
fold	-6292
road	-6293
ulse	-6294
▁120	-6295
▁aqu	-6296
▁obl	-6297
▁sel	-6298
▁tes	-6299
alian	-6300
archy	-6301
cence	-6302
eters	-6303
flies	-6304
going	-6305
tical	-6306
▁2001	-6307
▁acid	-6308
▁cham	-6309
▁dump	-6310
▁flip	-6311
▁hans	-6312
▁kiss	-6313
▁laid	-6314
▁rice	-6315
▁tied	-6316
itudes	-6317
usions	-6318
▁crick	-6319
▁cryst	-6320
▁fiber	-6321
▁flour	-6322
▁nobel	-6323
▁proof	-6324
▁rocks	-6325
▁sixth	-6326
▁stunt	-6327
▁tries	-6328
▁ultra	-6329
▁absorb	-6330
▁cheese	-6331
▁conven	-6332
▁emerge	-6333
▁jewish	-6334
▁native	-6335
▁stable	-6336
▁anticip	-6337
▁consume	-6338
▁dignity	-6339
▁guarant	-6340
▁receive	-6341
▁sensory	-6342
▁suicide	-6343
▁writers	-6344
▁artistic	-6345
▁contains	-6346
▁currency	-6347
▁repeated	-6348
▁returned	-6349
▁christian	-6350
▁customers	-6351
▁dependent	-6352
▁glamorous	-6353
▁intention	-6354
▁orchestra	-6355
▁uncertain	-6356
▁disappoint	-6357
▁explaining	-6358
▁protecting	-6359
▁suggesting	-6360
▁consequence	-6361
▁observation	-6362
▁spectacular	-6363
▁architectural	-6364
era	-6365
now	-6366
▁28	-6367
▁95	-6368
▁ly	-6369
▁ng	-6370
agen	-6371
iban	-6372
oust	-6373
▁bin	-6374
▁bio	-6375
▁dop	-6376
under	-6377
▁adap	-6378
▁buck	-6379
▁cous	-6380
▁eleg	-6381
▁june	-6382
▁mice	-6383
▁pale	-6384
▁publ	-6385
▁tech	-6386
arters	-6387
ashing	-6388
erving	-6389
uctive	-6390
▁guide	-6391
▁humor	-6392
▁meter	-6393
▁realm	-6394
▁restr	-6395
▁skept	-6396
▁assemb	-6397
▁attend	-6398
▁capita	-6399
▁escape	-6400
▁linear	-6401
▁neural	-6402
▁offers	-6403
▁repair	-6404
▁retire	-6405
▁robust	-6406
▁rwanda	-6407
▁scenar	-6408
▁scream	-6409
▁shadow	-6410
▁shaped	-6411
▁aggress	-6412
▁borders	-6413
▁circles	-6414
▁fiction	-6415
▁glamour	-6416
▁mammals	-6417
▁muslims	-6418
▁redwood	-6419
▁traject	-6420
▁asteroid	-6421
▁climbing	-6422
▁crossing	-6423
▁focusing	-6424
▁football	-6425
▁incident	-6426
▁openness	-6427
▁organize	-6428
▁speakers	-6429
▁stations	-6430
▁accidents	-6431
▁economist	-6432
▁highlight	-6433
▁musicians	-6434
▁providing	-6435
▁recommend	-6436
▁separated	-6437
▁variation	-6438
▁catastroph	-6439
▁collecting	-6440
▁journalist	-6441
▁computation	-6442
▁predictions	-6443
▁recognition	-6444
▁photographer	-6445
-1	-6446
hm	-6447
cel	-6448
cip	-6449
ini	-6450
aran	-6451
arre	-6452
eday	-6453
kins	-6454
ober	-6455
▁10-	-6456
▁ain	-6457
▁gon	-6458
▁hub	-6459
▁luc	-6460
▁lux	-6461
▁wid	-6462
attan	-6463
▁bars	-6464
▁dear	-6465
▁fool	-6466
▁glob	-6467
▁neat	-6468
▁rent	-6469
▁charl	-6470
▁devil	-6471
▁holds	-6472
▁laser	-6473
▁nerve	-6474
▁trash	-6475
century	-6476
uration	-6477
▁attrib	-6478
▁barely	-6479
▁halluc	-6480
▁injury	-6481
▁layers	-6482
▁limits	-6483
▁scales	-6484
▁amongst	-6485
▁automob	-6486
▁council	-6487
▁disgust	-6488
▁dolphin	-6489
▁federal	-6490
▁hanging	-6491
▁october	-6492
▁pulling	-6493
▁revenue	-6494
▁someday	-6495
▁symbols	-6496
▁dinosaur	-6497
▁external	-6498
▁hardware	-6499
▁optimism	-6500
▁fortunate	-6501
▁manhattan	-6502
▁terrorism	-6503
▁boundaries	-6504
▁ecosystems	-6505
▁strategies	-6506
▁underground	-6507
▁interactions	-6508
▁neuroscience	-6509
▁characteristics	-6510
che	-6511
opy	-6512
pal	-6513
sey	-6514
▁ba	-6515
esis	-6516
onia	-6517
▁biz	-6518
▁gir	-6519
▁hip	-6520
▁joe	-6521
▁tut	-6522
cohol	-6523
esign	-6524
ician	-6525
ogram	-6526
power	-6527
ville	-6528
▁bubb	-6529
▁butt	-6530
▁caps	-6531
▁cats	-6532
▁hier	-6533
▁leap	-6534
▁peer	-6535
▁rope	-6536
▁tear	-6537
▁trop	-6538
heimer	-6539
iminal	-6540
ptions	-6541
semble	-6542
▁bears	-6543
▁burst	-6544
▁chron	-6545
▁conce	-6546
▁crops	-6547
▁drawn	-6548
▁fruit	-6549
▁intim	-6550
▁legis	-6551
▁phant	-6552
▁seeds	-6553
▁tooth	-6554
▁wound	-6555
erences	-6556
▁barrel	-6557
▁breaks	-6558
▁buried	-6559
▁compos	-6560
▁degrad	-6561
▁expans	-6562
▁farmer	-6563
▁inches	-6564
▁killer	-6565
▁margin	-6566
▁newton	-6567
▁promot	-6568
▁pushed	-6569
▁rescue	-6570
▁richer	-6571
▁satisf	-6572
▁shrimp	-6573
▁tumors	-6574
▁alcohol	-6575
▁bottles	-6576
▁comprom	-6577
▁disturb	-6578
▁diverse	-6579
▁efforts	-6580
▁emerged	-6581
▁essence	-6582
▁exposed	-6583
▁failing	-6584
▁garbage	-6585
▁helicop	-6586
▁monitor	-6587
▁persist	-6588
▁raising	-6589
▁reports	-6590
▁robotic	-6591
▁dopamine	-6592
▁graphics	-6593
▁policies	-6594
▁preserve	-6595
▁unlikely	-6596
▁classical	-6597
▁gathering	-6598
▁generated	-6599
▁insurance	-6600
▁privilege	-6601
▁affordable	-6602
▁treatments	-6603
▁grandfather	-6604
▁ingredients	-6605
▁innovations	-6606
▁unbelievable	-6607
ba	-6608
gl	-6609
wa	-6610
aze	-6611
usi	-6612
▁pm	-6613
aust	-6614
ocks	-6615
orus	-6616
west	-6617
zero	-6618
▁fer	-6619
▁jam	-6620
▁nit	-6621
adesh	-6622
▁crew	-6623
▁duck	-6624
▁hire	-6625
▁nurt	-6626
▁orph	-6627
▁seek	-6628
▁whis	-6629
ateful	-6630
ivered	-6631
market	-6632
▁4,000	-6633
▁bronx	-6634
▁cable	-6635
▁coach	-6636
▁guard	-6637
▁males	-6638
▁nutri	-6639
▁opera	-6640
▁proto	-6641
▁silly	-6642
▁decent	-6643
▁emphas	-6644
▁evolve	-6645
▁intrig	-6646
▁needle	-6647
▁powers	-6648
▁punish	-6649
▁spinal	-6650
▁subtle	-6651
▁subway	-6652
▁besides	-6653
▁bizarre	-6654
▁concern	-6655
▁forests	-6656
▁methods	-6657
▁parties	-6658
▁picking	-6659
▁recover	-6660
▁speaker	-6661
▁taliban	-6662
▁baseball	-6663
▁globally	-6664
▁shopping	-6665
▁skeleton	-6666
▁sleeping	-6667
▁committed	-6668
▁conflicts	-6669
▁depressed	-6670
▁frequency	-6671
▁gentleman	-6672
▁procedure	-6673
▁sentences	-6674
▁teenagers	-6675
▁governance	-6676
▁originally	-6677
▁struggling	-6678
▁cooperation	-6679
▁electronics	-6680
▁interacting	-6681
▁represented	-6682
▁successfully	-6683
asy	-6684
ela	-6685
har	-6686
iac	-6687
ods	-6688
sah	-6689
sec	-6690
▁mt	-6691
,500	-6692
ails	-6693
▁700	-6694
▁alz	-6695
▁rio	-6696
▁tam	-6697
liest	-6698
rical	-6699
▁abra	-6700
▁biod	-6701
▁dawn	-6702
▁debt	-6703
▁febr	-6704
▁frog	-6705
▁grat	-6706
▁hind	-6707
▁neck	-6708
▁palm	-6709
▁rats	-6710
▁rely	-6711
▁rose	-6712
▁stom	-6713
▁subs	-6714
▁tony	-6715
iotics	-6716
soever	-6717
▁blame	-6718
▁blogs	-6719
▁lifes	-6720
▁mayor	-6721
▁miser	-6722
▁mixed	-6723
▁punch	-6724
▁tatto	-6725
▁acknow	-6726
▁actors	-6727
▁adoles	-6728
▁county	-6729
▁empire	-6730
▁fertil	-6731
▁invite	-6732
▁locked	-6733
▁regime	-6734
▁senior	-6735
▁sevent	-6736
▁skelet	-6737
▁tracks	-6738
▁vagina	-6739
fficient	-6740
▁affects	-6741
▁aspects	-6742
▁briefly	-6743
▁lawyers	-6744
▁statist	-6745
▁visited	-6746
▁warning	-6747
▁electrod	-6748
▁engaging	-6749
▁february	-6750
▁alzheimer	-6751
▁announced	-6752
▁explosion	-6753
▁predicted	-6754
▁qualities	-6755
▁biologists	-6756
▁identified	-6757
▁industries	-6758
▁operations	-6759
▁underlying	-6760
▁whatsoever	-6761
▁demographic	-6762
▁translation	-6763
▁experimental	-6764
▁occasionally	-6765
▁collaborative	-6766
hy	-6767
eda	-6768
toc	-6769
uff	-6770
ares	-6771
erer	-6772
free	-6773
iety	-6774
ilem	-6775
▁800	-6776
▁mri	-6777
iment	-6778
night	-6779
ontal	-6780
opath	-6781
osure	-6782
tocin	-6783
▁clot	-6784
▁eval	-6785
▁ford	-6786
▁mode	-6787
▁radi	-6788
▁sacr	-6789
▁shan	-6790
astics	-6791
urable	-6792
▁banks	-6793
▁dilem	-6794
▁kills	-6795
▁plain	-6796
▁spray	-6797
looking	-6798
▁branch	-6799
▁cotton	-6800
▁domain	-6801
▁headed	-6802
▁howard	-6803
▁lawyer	-6804
▁missed	-6805
▁sacred	-6806
▁stages	-6807
chnology	-6808
▁disrupt	-6809
▁florida	-6810
▁footage	-6811
▁forming	-6812
▁instant	-6813
▁luckily	-6814
▁phantom	-6815
▁pretend	-6816
▁slavery	-6817
▁educated	-6818
▁mushroom	-6819
▁oxytocin	-6820
▁pandemic	-6821
▁reminded	-6822
▁colleague	-6823
▁describes	-6824
▁detection	-6825
▁elections	-6826
▁intuition	-6827
▁commission	-6828
▁elementary	-6829
▁hypothesis	-6830
▁impression	-6831
▁contemporary	-6832
▁instructions	-6833
▁surprisingly	-6834
aid	-6835
ecd	-6836
ica	-6837
mar	-6838
▁3.	-6839
agos	-6840
bles	-6841
ghai	-6842
itan	-6843
ulum	-6844
yard	-6845
▁ali	-6846
▁dys	-6847
▁nam	-6848
▁pir	-6849
▁spa	-6850
▁vit	-6851
adays	-6852
aving	-6853
burgh	-6854
capes	-6855
chron	-6856
gence	-6857
▁bats	-6858
▁damn	-6859
▁dive	-6860
▁earn	-6861
▁fung	-6862
▁gate	-6863
▁mail	-6864
▁pigs	-6865
▁sits	-6866
ndrome	-6867
▁ambig	-6868
▁begun	-6869
▁brian	-6870
▁downt	-6871
▁flows	-6872
▁insul	-6873
▁jesus	-6874
▁shore	-6875
▁spark	-6876
▁threw	-6877
▁treas	-6878
working	-6879
▁august	-6880
▁entrop	-6881
▁ethnic	-6882
▁export	-6883
▁funded	-6884
▁recept	-6885
▁repeat	-6886
▁served	-6887
▁twenty	-6888
▁beliefs	-6889
▁consult	-6890
▁highway	-6891
▁imaging	-6892
▁immense	-6893
▁involve	-6894
▁methane	-6895
▁miracle	-6896
▁neander	-6897
▁percept	-6898
▁pointed	-6899
▁sisters	-6900
▁staying	-6901
▁wheelch	-6902
▁extended	-6903
▁figuring	-6904
▁informed	-6905
▁leverage	-6906
▁nowadays	-6907
▁perceive	-6908
▁plastics	-6909
▁reducing	-6910
▁reported	-6911
▁theories	-6912
▁adventure	-6913
▁breakfast	-6914
▁delivered	-6915
▁initially	-6916
▁contribute	-6917
▁dictionary	-6918
▁mechanisms	-6919
▁permission	-6920
▁proportion	-6921
▁simulation	-6922
▁exponential	-6923
▁improvement	-6924
▁universities	-6925
ev	-6926
bow	-6927
zan	-6928
ault	-6929
coln	-6930
husi	-6931
icks	-6932
list	-6933
oran	-6934
ship	-6935
▁bob	-6936
▁fet	-6937
▁tie	-6938
gener	-6939
level	-6940
ostic	-6941
worth	-6942
▁chim	-6943
▁coke	-6944
▁dent	-6945
▁dumb	-6946
▁eric	-6947
▁guns	-6948
▁jose	-6949
▁josh	-6950
▁subt	-6951
▁tong	-6952
▁tuna	-6953
minute	-6954
umines	-6955
verest	-6956
▁advoc	-6957
▁audio	-6958
▁bucks	-6959
▁cabin	-6960
▁glaci	-6961
▁henry	-6962
▁italy	-6963
▁monit	-6964
▁outer	-6965
▁recru	-6966
▁route	-6967
▁spont	-6968
igation	-6969
saharan	-6970
section	-6971
unction	-6972
▁approx	-6973
▁arrive	-6974
▁ensure	-6975
▁manual	-6976
▁motors	-6977
▁panels	-6978
▁recess	-6979
▁rhythm	-6980
▁stores	-6981
▁turkey	-6982
▁crucial	-6983
▁elderly	-6984
▁glasses	-6985
▁hunting	-6986
▁imagery	-6987
▁lincoln	-6988
▁portion	-6989
▁promote	-6990
▁protest	-6991
▁sensors	-6992
▁winning	-6993
▁criminal	-6994
▁fraction	-6995
▁inventor	-6996
▁keyboard	-6997
▁shanghai	-6998
▁syndrome	-6999
▁terribly	-7000
▁airplanes	-7001
▁biosphere	-7002
▁expanding	-7003
▁jellyfish	-7004
▁suggested	-7005
▁uncomfort	-7006
▁expectancy	-7007
▁phosphorus	-7008
▁translated	-7009
▁vegetables	-7010
▁biodiversity	-7011
▁independence	-7012
ati	-7013
bed	-7014
fin	-7015
ipe	-7016
ria	-7017
▁rb	-7018
edia	-7019
half	-7020
▁cig	-7021
▁dun	-7022
▁egg	-7023
▁fox	-7024
▁tip	-7025
▁wet	-7026
aceut	-7027
copes	-7028
grade	-7029
ynman	-7030
▁arth	-7031
▁boss	-7032
▁cert	-7033
▁deli	-7034
▁gods	-7035
▁hors	-7036
▁jugg	-7037
aneous	-7038
parent	-7039
source	-7040
▁award	-7041
▁bangl	-7042
▁comic	-7043
▁edges	-7044
▁gonna	-7045
▁grace	-7046
▁memes	-7047
▁moore	-7048
▁parli	-7049
▁revol	-7050
▁sauce	-7051
▁tribe	-7052
▁tubes	-7053
▁wheat	-7054
▁wider	-7055
▁caring	-7056
▁comedy	-7057
▁correl	-7058
▁endang	-7059
▁orient	-7060
▁trains	-7061
idential	-7062
▁enthusi	-7063
▁feynman	-7064
▁hitting	-7065
▁insulin	-7066
▁painted	-7067
▁pockets	-7068
▁selfish	-7069
▁serving	-7070
▁shelter	-7071
aceutical	-7072
▁accepted	-7073
▁clothing	-7074
▁correspo	-7075
▁december	-7076
▁dominant	-7077
▁friendly	-7078
▁genetics	-7079
▁geometry	-7080
▁grateful	-7081
▁innocent	-7082
▁proposed	-7083
▁reconstr	-7084
▁robotics	-7085
▁synchron	-7086
▁wildlife	-7087
▁diagnosed	-7088
▁implement	-7089
▁ownership	-7090
▁paralyzed	-7091
▁signature	-7092
▁comparison	-7093
▁engagement	-7094
▁parliament	-7095
▁resolution	-7096
▁trajectory	-7097
▁description	-7098
▁expectations	-7099
▁communications	-7100
▁mathematicians	-7101
emp	-7102
enh	-7103
reh	-7104
▁55	-7105
▁lg	-7106
ache	-7107
agon	-7108
conf	-7109
onge	-7110
osal	-7111
quis	-7112
viol	-7113
▁mig	-7114
▁ooh	-7115
▁piz	-7116
▁sty	-7117
bered	-7118
eller	-7119
izoph	-7120
▁chop	-7121
▁cows	-7122
▁dies	-7123
▁fest	-7124
▁indo	-7125
▁meal	-7126
▁quit	-7127
▁sink	-7128
▁susp	-7129
▁tone	-7130
makers	-7131
mingly	-7132
ometer	-7133
▁arist	-7134
▁array	-7135
▁aspir	-7136
▁paras	-7137
▁pause	-7138
▁physi	-7139
▁redef	-7140
▁schem	-7141
▁scott	-7142
▁shirt	-7143
▁squee	-7144
▁tempt	-7145
▁views	-7146
▁winds	-7147
▁yemen	-7148
▁annual	-7149
▁client	-7150
▁cosmic	-7151
▁makers	-7152
▁merely	-7153
▁murder	-7154
▁scores	-7155
▁simult	-7156
▁strike	-7157
▁summit	-7158
▁ticket	-7159
▁widely	-7160
children	-7161
▁abraham	-7162
▁citizen	-7163
▁entropy	-7164
▁ethical	-7165
▁flowing	-7166
▁fragile	-7167
▁graphic	-7168
▁penguin	-7169
▁prepare	-7170
▁printer	-7171
▁prosper	-7172
▁russian	-7173
▁shocked	-7174
▁articles	-7175
▁distingu	-7176
▁flexible	-7177
▁laughing	-7178
▁schizoph	-7179
▁tendency	-7180
▁daughters	-7181
▁forgotten	-7182
▁immediate	-7183
▁investing	-7184
▁primitive	-7185
▁protocell	-7186
▁remaining	-7187
▁replicate	-7188
▁continuing	-7189
▁endangered	-7190
▁mysterious	-7191
▁profoundly	-7192
▁assumptions	-7193
▁discovering	-7194
▁participants	-7195
▁uncomfortable	-7196
uk	-7197
bod	-7198
dam	-7199
isy	-7200
ocr	-7201
omp	-7202
usc	-7203
aded	-7204
char	-7205
east	-7206
ihad	-7207
walk	-7208
▁dil	-7209
▁kar	-7210
▁tib	-7211
▁wil	-7212
stage	-7213
▁2050	-7214
▁cake	-7215
▁drew	-7216
▁forb	-7217
▁guid	-7218
▁homo	-7219
▁hook	-7220
▁quad	-7221
▁wolf	-7222
asters	-7223
encing	-7224
▁armed	-7225
▁arrow	-7226
▁buddh	-7227
▁grasp	-7228
▁immun	-7229
▁jihad	-7230
▁loves	-7231
▁screw	-7232
▁shelf	-7233
▁spons	-7234
▁stops	-7235
▁swiss	-7236
▁veter	-7237
attered	-7238
▁accent	-7239
▁anatom	-7240
▁arabic	-7241
▁basket	-7242
▁curric	-7243
▁ending	-7244
▁fibers	-7245
▁formal	-7246
▁freely	-7247
▁fusion	-7248
▁mining	-7249
▁perpet	-7250
▁steven	-7251
▁sunday	-7252
▁tunnel	-7253
interest	-7254
▁analyze	-7255
▁charges	-7256
▁enables	-7257
▁enlight	-7258
▁puzzles	-7259
▁reminds	-7260
▁stepped	-7261
▁tissues	-7262
▁captured	-7263
▁confused	-7264
▁delivery	-7265
▁dialogue	-7266
▁earliest	-7267
▁homeless	-7268
▁mosquito	-7269
▁remained	-7270
▁suffered	-7271
▁supplies	-7272
▁surgeons	-7273
▁exception	-7274
▁extension	-7275
▁factories	-7276
▁improving	-7277
▁nutrition	-7278
▁objective	-7279
▁realizing	-7280
▁substance	-7281
▁supported	-7282
▁transcend	-7283
▁infections	-7284
▁initiative	-7285
▁researcher	-7286
▁resilience	-7287
▁traditions	-7288
▁antibiotics	-7289
▁programming	-7290
▁civilizations	-7291
▁demonstration	-7292
▁pharmaceutical	-7293
oe	-7294
sp	-7295
vy	-7296
bul	-7297
bye	-7298
rix	-7299
▁dy	-7300
▁gt	-7301
▁ib	-7302
▁lt	-7303
▁ss	-7304
▁uh	-7305
apor	-7306
bled	-7307
illa	-7308
izer	-7309
made	-7310
onds	-7311
uces	-7312
umin	-7313
▁apr	-7314
▁eve	-7315
▁jet	-7316
▁sew	-7317
aming	-7318
iance	-7319
itous	-7320
▁bend	-7321
▁benj	-7322
▁bond	-7323
▁buff	-7324
▁bure	-7325
▁dism	-7326
▁gaps	-7327
▁gear	-7328
▁holy	-7329
▁leaf	-7330
▁nick	-7331
▁odds	-7332
▁prev	-7333
▁shit	-7334
▁soup	-7335
▁stun	-7336
▁sulf	-7337
▁toss	-7338
▁tsun	-7339
employ	-7340
ughter	-7341
▁abuse	-7342
▁artif	-7343
▁cliff	-7344
▁dough	-7345
▁dutch	-7346
▁eaten	-7347
▁genoc	-7348
▁gotta	-7349
▁greek	-7350
▁hawai	-7351
▁hemis	-7352
▁kevin	-7353
▁marry	-7354
▁owner	-7355
▁spain	-7356
▁tears	-7357
parents	-7358
▁acoust	-7359
▁convey	-7360
▁dragon	-7361
▁garage	-7362
▁improv	-7363
▁insane	-7364
▁jumped	-7365
▁planes	-7366
▁preval	-7367
▁sketch	-7368
▁victim	-7369
▁analogy	-7370
▁beneath	-7371
▁bubbles	-7372
▁colored	-7373
▁despair	-7374
▁fastest	-7375
▁fathers	-7376
▁formula	-7377
▁founded	-7378
▁horizon	-7379
▁implant	-7380
▁magical	-7381
▁request	-7382
▁reserve	-7383
▁smarter	-7384
▁soldier	-7385
▁uniform	-7386
▁channels	-7387
▁choosing	-7388
▁database	-7389
▁inherent	-7390
▁insights	-7391
▁interior	-7392
▁refriger	-7393
▁sciences	-7394
▁smallest	-7395
▁documents	-7396
▁infection	-7397
▁nutrients	-7398
▁positions	-7399
▁strangers	-7400
▁antarctica	-7401
▁bangladesh	-7402
▁ecological	-7403
▁frustrated	-7404
▁inevitable	-7405
▁wheelchair	-7406
▁achievement	-7407
▁established	-7408
▁philosopher	-7409
▁technically	-7410
▁compassionate	-7411
▁institutional	-7412
▁significantly	-7413
▁administration	-7414
▁interpretation	-7415
wl	-7416
isa	-7417
rot	-7418
ses	-7419
▁33	-7420
abul	-7421
away	-7422
olic	-7423
part	-7424
▁bol	-7425
▁bot	-7426
▁ceo	-7427
▁mcd	-7428
▁shy	-7429
▁voy	-7430
ashed	-7431
ilize	-7432
inson	-7433
▁2002	-7434
▁beij	-7435
▁brid	-7436
▁cass	-7437
▁chef	-7438
▁cher	-7439
▁coch	-7440
▁enem	-7441
▁genu	-7442
▁hong	-7443
▁jazz	-7444
▁leon	-7445
▁meme	-7446
▁sale	-7447
▁stab	-7448
▁suck	-7449
▁toes	-7450
▁toys	-7451
▁woke	-7452
americ	-7453
iences	-7454
▁agent	-7455
▁april	-7456
▁bless	-7457
▁delhi	-7458
▁loose	-7459
▁steal	-7460
▁worms	-7461
angible	-7462
related	-7463
tending	-7464
▁builds	-7465
▁comics	-7466
▁defend	-7467
▁errors	-7468
▁occurs	-7469
▁partly	-7470
▁pursue	-7471
▁reveal	-7472
▁rivers	-7473
▁static	-7474
▁stroke	-7475
▁tasman	-7476
▁therap	-7477
▁thresh	-7478
▁uncons	-7479
▁waters	-7480
▁wheels	-7481
▁adopted	-7482
▁closest	-7483
▁convert	-7484
▁drivers	-7485
▁gallery	-7486
▁intrins	-7487
▁johnson	-7488
▁mapping	-7489
▁privacy	-7490
▁spreads	-7491
▁accounts	-7492
▁answered	-7493
▁calories	-7494
▁entering	-7495
▁homework	-7496
▁reinvent	-7497
▁shocking	-7498
▁unemploy	-7499
▁broadcast	-7500
▁confident	-7501
▁expansion	-7502
▁expecting	-7503
▁gradually	-7504
▁physician	-7505
▁predators	-7506
▁prisoners	-7507
▁renewable	-7508
▁categories	-7509
▁continents	-7510
▁curriculum	-7511
▁expedition	-7512
▁extinction	-7513
▁impressive	-7514
▁newspapers	-7515
▁prevention	-7516
▁remembered	-7517
▁terrifying	-7518
▁approaching	-7519
▁limitations	-7520
▁restaurants	-7521
▁schizophren	-7522
▁uncertainty	-7523
▁experiencing	-7524
200	-7525
dig	-7526
exp	-7527
hum	-7528
leg	-7529
oma	-7530
see	-7531
frie	-7532
ilit	-7533
mart	-7534
rate	-7535
vest	-7536
▁20-	-7537
▁doz	-7538
▁lit	-7539
▁sav	-7540
emics	-7541
omagn	-7542
onald	-7543
oning	-7544
▁biol	-7545
▁bold	-7546
▁calm	-7547
▁cree	-7548
▁drum	-7549
▁hipp	-7550
▁loan	-7551
▁mike	-7552
▁nord	-7553
▁seal	-7554
▁ward	-7555
▁wrap	-7556
lessly	-7557
▁alpha	-7558
▁amate	-7559
▁badly	-7560
▁choir	-7561
▁defic	-7562
▁fancy	-7563
▁fluct	-7564
▁gorge	-7565
▁herit	-7566
▁incor	-7567
▁lingu	-7568
▁owned	-7569
▁pizza	-7570
▁proph	-7571
▁ratio	-7572
▁tends	-7573
athered	-7574
▁canopy	-7575
▁crowds	-7576
▁diving	-7577
▁friday	-7578
▁helium	-7579
▁lowest	-7580
▁marvel	-7581
▁nearby	-7582
▁parach	-7583
▁propag	-7584
▁proven	-7585
▁tongue	-7586
▁ultras	-7587
▁arrange	-7588
▁barrier	-7589
▁beating	-7590
▁cancers	-7591
▁ceiling	-7592
▁cigaret	-7593
▁contrad	-7594
▁deserve	-7595
▁enemies	-7596
▁laptops	-7597
▁observe	-7598
▁restore	-7599
▁shortly	-7600
▁smoking	-7601
▁spanish	-7602
▁tension	-7603
▁threats	-7604
▁wealthy	-7605
▁william	-7606
▁agencies	-7607
▁attitude	-7608
▁category	-7609
▁circuits	-7610
▁colonies	-7611
▁contrary	-7612
▁counting	-7613
▁downtown	-7614
▁historic	-7615
▁included	-7616
▁musician	-7617
▁pointing	-7618
▁reliable	-7619
▁virginia	-7620
▁completed	-7621
▁delicious	-7622
▁elephants	-7623
▁instantly	-7624
▁phenomena	-7625
▁planetary	-7626
▁volunteer	-7627
otechnology	-7628
▁appearance	-7629
▁autonomous	-7630
▁biolumines	-7631
▁capability	-7632
▁classrooms	-7633
▁compelling	-7634
▁consistent	-7635
▁disability	-7636
▁generating	-7637
▁helicopter	-7638
▁illustrate	-7639
▁influenced	-7640
▁terrorists	-7641
▁association	-7642
▁electromagn	-7643
▁marketplace	-7644
▁installation	-7645
▁philanthropy	-7646
▁psychologists	-7647
▁representation	-7648
ki	-7649
ado	-7650
auc	-7651
ias	-7652
mod	-7653
yan	-7654
▁kh	-7655
▁os	-7656
cher	-7657
▁ads	-7658
▁amy	-7659
▁cyl	-7660
▁mud	-7661
▁ner	-7662
▁ram	-7663
▁ski	-7664
▁spo	-7665
▁sup	-7666
ading	-7667
allow	-7668
lings	-7669
umble	-7670
uther	-7671
▁bind	-7672
▁brut	-7673
▁deaf	-7674
▁glue	-7675
▁inch	-7676
▁junk	-7677
▁lock	-7678
▁mold	-7679
▁ngos	-7680
▁nuts	-7681
▁pear	-7682
▁rang	-7683
▁seti	-7684
▁surg	-7685
▁thus	-7686
assemb	-7687
icious	-7688
thirds	-7689
▁brook	-7690
▁coinc	-7691
▁crows	-7692
▁fires	-7693
▁gases	-7694
▁hired	-7695
▁jewel	-7696
▁ships	-7697
▁stake	-7698
▁strip	-7699
▁subur	-7700
▁tiles	-7701
▁trail	-7702
▁twist	-7703
▁aggreg	-7704
▁cycles	-7705
▁gained	-7706
▁horses	-7707
▁immers	-7708
▁joshua	-7709
▁kidney	-7710
▁matrix	-7711
▁orphan	-7712
▁recipe	-7713
▁render	-7714
▁shakes	-7715
▁sheets	-7716
▁shrink	-7717
▁stimul	-7718
▁stones	-7719
▁summar	-7720
▁tackle	-7721
▁tanzan	-7722
▁tragic	-7723
▁troops	-7724
▁wooden	-7725
otherapy	-7726
▁anxiety	-7727
▁arguing	-7728
▁cricket	-7729
▁cybercr	-7730
▁demands	-7731
▁ecology	-7732
▁elected	-7733
▁engines	-7734
▁genuine	-7735
▁impacts	-7736
▁indians	-7737
▁italian	-7738
▁neutral	-7739
▁origins	-7740
▁profile	-7741
▁rolling	-7742
▁teenage	-7743
▁tsunami	-7744
▁unhappy	-7745
▁vietnam	-7746
▁accompan	-7747
▁altitude	-7748
▁benjamin	-7749
▁branches	-7750
▁contempl	-7751
▁detailed	-7752
▁generous	-7753
▁invested	-7754
▁isolated	-7755
▁judgment	-7756
▁measures	-7757
▁palestin	-7758
▁prostate	-7759
▁replaced	-7760
▁scholars	-7761
▁strongly	-7762
▁worrying	-7763
▁affecting	-7764
▁anonymous	-7765
▁conducted	-7766
▁deception	-7767
▁incentive	-7768
▁interrupt	-7769
▁meanwhile	-7770
▁miserable	-7771
▁performed	-7772
▁accomplish	-7773
▁assumption	-7774
▁discipline	-7775
▁facilities	-7776
▁inequality	-7777
▁physicists	-7778
▁yourselves	-7779
▁constructed	-7780
▁foundations	-7781
▁genetically	-7782
▁unconscious	-7783
▁grandchildren	-7784
▁mathematician	-7785
ala	-7786
boo	-7787
hea	-7788
nut	-7789
ona	-7790
ora	-7791
pie	-7792
rid	-7793
▁38	-7794
▁85	-7795
▁ak	-7796
▁dv	-7797
ague	-7798
aine	-7799
gend	-7800
lson	-7801
pond	-7802
xual	-7803
▁30-	-7804
▁ech	-7805
▁gif	-7806
▁jac	-7807
▁lee	-7808
▁nom	-7809
▁rod	-7810
arest	-7811
orted	-7812
phere	-7813
rence	-7814
▁dirt	-7815
▁excl	-7816
▁fate	-7817
▁fits	-7818
▁foie	-7819
▁glor	-7820
▁hybr	-7821
▁infl	-7822
▁rick	-7823
▁slic	-7824
▁zeal	-7825
friend	-7826
▁camel	-7827
▁cheat	-7828
▁deals	-7829
▁embry	-7830
▁mimic	-7831
▁mines	-7832
▁reefs	-7833
▁shots	-7834
▁shout	-7835
▁stair	-7836
▁ubiqu	-7837
▁wires	-7838
inarily	-7839
ressing	-7840
▁butter	-7841
▁carpet	-7842
▁chairs	-7843
▁columb	-7844
▁dozens	-7845
▁editor	-7846
▁insist	-7847
▁nelson	-7848
▁nerves	-7849
▁silver	-7850
▁unable	-7851
changing	-7852
▁absence	-7853
▁enterpr	-7854
▁goodbye	-7855
▁harmony	-7856
▁harness	-7857
▁mindset	-7858
▁offices	-7859
▁smiling	-7860
▁targets	-7861
▁torture	-7862
▁breeding	-7863
▁cartoons	-7864
▁diameter	-7865
▁distract	-7866
▁offering	-7867
▁portrait	-7868
▁scenario	-7869
▁vaccines	-7870
▁competing	-7871
▁dominated	-7872
▁headlines	-7873
▁locations	-7874
▁mechanics	-7875
▁passenger	-7876
▁radically	-7877
▁stability	-7878
▁threshold	-7879
▁electrodes	-7880
▁narratives	-7881
▁prediction	-7882
▁encouraging	-7883
▁frightening	-7884
▁supermarket	-7885
▁grandparents	-7886
▁intervention	-7887
▁transforming	-7888
▁neighborhoods	-7889
▁interconnected	-7890
▁simultaneously	-7891
▁+	-7892
ads	-7893
aud	-7894
hal	-7895
neg	-7896
▁mm	-7897
▁nu	-7898
born	-7899
mill	-7900
pled	-7901
▁	-7902
e	-7903
t	-7904
a	-7905
o	-7906
i	-7907
s	-7908
n	-7909
r	-7910
h	-7911
l	-7912
d	-7913
u	-7914
c	-7915
p	-7916
m	-7917
w	-7918
y	-7919
g	-7920
f	-7921
,	-7922
b	-7923
.	-7924
v	-7925
k	-7926
;	-7927
&	-7928
-	-7929
q	-7930
x	-7931
j	-7932
0	-7933
?	-7934
z	-7935
1	-7936
:	-7937
2	-7938
9	-7939
5	-7940
3	-7941
4	-7942
8	-7943
6	-7944
7	-7945
!	-7946
#	-7947
/	-7948
—	-7949
$	-7950
é	-7951
+	-7952
á	-7953
)	-7954
í	-7955
ó	-7956
ö	-7957
–	-7958
è	-7959
ü	-7960
%	-7961
=	-7962
(	-7963
@	-7964
^	-7965
ä	-7966
â	-7967
ã	-7968
ç	-7969
อ	-7970
	-7971
	-7972
ê	-7973
ñ	-7974
à	-7975
ā	-7976
ย	-7977
ร	-7978
่	-7979
*	-7980
\	-7981
_	-7982
£	-7983
ë	-7984
ï	-7985
ô	-7986
ø	-7987
ú	-7988
ă	-7989
ć	-7990
ē	-7991
ť	-7992
€	-7993
你	-7994
葱	-7995
送	-7996
